{
  "version": "1.0",
  "truncation": null,
  "padding": null,
  "added_tokens": [
    {
      "id": 0,
      "content": "<|bos|>",
      "single_word": false,
      "lstrip": false,
      "rstrip": false,
      "normalized": false,
      "special": true
    },
    {
      "id": 1,
      "content": "<|eos|>",
      "single_word": false,
      "lstrip": false,
      "rstrip": false,
      "normalized": false,
      "special": true
    },
    {
      "id": 2,
      "content": "<|pad|>",
      "single_word": false,
      "lstrip": false,
      "rstrip": false,
      "normalized": false,
      "special": true
    },
    {
      "id": 3,
      "content": "<|reserved_0|>",
      "single_word": false,
      "lstrip": false,
      "rstrip": false,
      "normalized": false,
      "special": true
    },
    {
      "id": 4,
      "content": "<|reserved_1|>",
      "single_word": false,
      "lstrip": false,
      "rstrip": false,
      "normalized": false,
      "special": true
    },
    {
      "id": 5,
      "content": "<|reserved_2|>",
      "single_word": false,
      "lstrip": false,
      "rstrip": false,
      "normalized": false,
      "special": true
    },
    {
      "id": 6,
      "content": "<|reserved_3|>",
      "single_word": false,
      "lstrip": false,
      "rstrip": false,
      "normalized": false,
      "special": true
    },
    {
      "id": 7,
      "content": "<|reserved_4|>",
      "single_word": false,
      "lstrip": false,
      "rstrip": false,
      "normalized": false,
      "special": true
    },
    {
      "id": 8,
      "content": "<|reserved_5|>",
      "single_word": false,
      "lstrip": false,
      "rstrip": false,
      "normalized": false,
      "special": true
    },
    {
      "id": 9,
      "content": "<|reserved_6|>",
      "single_word": false,
      "lstrip": false,
      "rstrip": false,
      "normalized": false,
      "special": true
    },
    {
      "id": 10,
      "content": "<|reserved_7|>",
      "single_word": false,
      "lstrip": false,
      "rstrip": false,
      "normalized": false,
      "special": true
    }
  ],
  "normalizer": {
    "type": "NFC"
  },
  "pre_tokenizer": {
    "type": "ByteLevel",
    "add_prefix_space": false,
    "trim_offsets": true,
    "use_regex": true
  },
  "post_processor": null,
  "decoder": {
    "type": "ByteLevel",
    "add_prefix_space": true,
    "trim_offsets": true,
    "use_regex": true
  },
  "model": {
    "type": "BPE",
    "dropout": null,
    "unk_token": null,
    "continuing_subword_prefix": null,
    "end_of_word_suffix": null,
    "fuse_unk": false,
    "byte_fallback": true,
    "ignore_merges": false,
    "vocab": {
      "<|bos|>": 0,
      "<|eos|>": 1,
      "<|pad|>": 2,
      "<|reserved_0|>": 3,
      "<|reserved_1|>": 4,
      "<|reserved_2|>": 5,
      "<|reserved_3|>": 6,
      "<|reserved_4|>": 7,
      "<|reserved_5|>": 8,
      "<|reserved_6|>": 9,
      "<|reserved_7|>": 10,
      "!": 11,
      "\"": 12,
      "#": 13,
      "$": 14,
      "%": 15,
      "&": 16,
      "'": 17,
      "(": 18,
      ")": 19,
      "*": 20,
      "+": 21,
      ",": 22,
      "-": 23,
      ".": 24,
      "/": 25,
      "0": 26,
      "1": 27,
      "2": 28,
      "3": 29,
      "4": 30,
      "5": 31,
      "6": 32,
      "7": 33,
      "8": 34,
      "9": 35,
      ":": 36,
      ";": 37,
      "<": 38,
      "=": 39,
      ">": 40,
      "?": 41,
      "@": 42,
      "A": 43,
      "B": 44,
      "C": 45,
      "D": 46,
      "E": 47,
      "F": 48,
      "G": 49,
      "H": 50,
      "I": 51,
      "J": 52,
      "K": 53,
      "L": 54,
      "M": 55,
      "N": 56,
      "O": 57,
      "P": 58,
      "Q": 59,
      "R": 60,
      "S": 61,
      "T": 62,
      "U": 63,
      "V": 64,
      "W": 65,
      "X": 66,
      "Y": 67,
      "Z": 68,
      "[": 69,
      "\\": 70,
      "]": 71,
      "^": 72,
      "_": 73,
      "`": 74,
      "a": 75,
      "b": 76,
      "c": 77,
      "d": 78,
      "e": 79,
      "f": 80,
      "g": 81,
      "h": 82,
      "i": 83,
      "j": 84,
      "k": 85,
      "l": 86,
      "m": 87,
      "n": 88,
      "o": 89,
      "p": 90,
      "q": 91,
      "r": 92,
      "s": 93,
      "t": 94,
      "u": 95,
      "v": 96,
      "w": 97,
      "x": 98,
      "y": 99,
      "z": 100,
      "{": 101,
      "|": 102,
      "}": 103,
      "~": 104,
      "¡": 105,
      "¢": 106,
      "£": 107,
      "¤": 108,
      "¥": 109,
      "¦": 110,
      "§": 111,
      "¨": 112,
      "©": 113,
      "ª": 114,
      "«": 115,
      "¬": 116,
      "®": 117,
      "¯": 118,
      "°": 119,
      "±": 120,
      "²": 121,
      "³": 122,
      "´": 123,
      "µ": 124,
      "¶": 125,
      "·": 126,
      "¸": 127,
      "¹": 128,
      "º": 129,
      "»": 130,
      "¼": 131,
      "½": 132,
      "¾": 133,
      "¿": 134,
      "À": 135,
      "Á": 136,
      "Â": 137,
      "Ã": 138,
      "Ä": 139,
      "Å": 140,
      "Æ": 141,
      "Ç": 142,
      "È": 143,
      "É": 144,
      "Ê": 145,
      "Ë": 146,
      "Ì": 147,
      "Í": 148,
      "Î": 149,
      "Ï": 150,
      "Ð": 151,
      "Ñ": 152,
      "Ò": 153,
      "Ó": 154,
      "Ô": 155,
      "Õ": 156,
      "Ö": 157,
      "×": 158,
      "Ø": 159,
      "Ù": 160,
      "Ú": 161,
      "Û": 162,
      "Ü": 163,
      "Ý": 164,
      "Þ": 165,
      "ß": 166,
      "à": 167,
      "á": 168,
      "â": 169,
      "ã": 170,
      "ä": 171,
      "å": 172,
      "æ": 173,
      "ç": 174,
      "è": 175,
      "é": 176,
      "ê": 177,
      "ë": 178,
      "ì": 179,
      "í": 180,
      "î": 181,
      "ï": 182,
      "ð": 183,
      "ñ": 184,
      "ò": 185,
      "ó": 186,
      "ô": 187,
      "õ": 188,
      "ö": 189,
      "÷": 190,
      "ø": 191,
      "ù": 192,
      "ú": 193,
      "û": 194,
      "ü": 195,
      "ý": 196,
      "þ": 197,
      "ÿ": 198,
      "Ā": 199,
      "ā": 200,
      "Ă": 201,
      "ă": 202,
      "Ą": 203,
      "ą": 204,
      "Ć": 205,
      "ć": 206,
      "Ĉ": 207,
      "ĉ": 208,
      "Ċ": 209,
      "ċ": 210,
      "Č": 211,
      "č": 212,
      "Ď": 213,
      "ď": 214,
      "Đ": 215,
      "đ": 216,
      "Ē": 217,
      "ē": 218,
      "Ĕ": 219,
      "ĕ": 220,
      "Ė": 221,
      "ė": 222,
      "Ę": 223,
      "ę": 224,
      "Ě": 225,
      "ě": 226,
      "Ĝ": 227,
      "ĝ": 228,
      "Ğ": 229,
      "ğ": 230,
      "Ġ": 231,
      "ġ": 232,
      "Ģ": 233,
      "ģ": 234,
      "Ĥ": 235,
      "ĥ": 236,
      "Ħ": 237,
      "ħ": 238,
      "Ĩ": 239,
      "ĩ": 240,
      "Ī": 241,
      "ī": 242,
      "Ĭ": 243,
      "ĭ": 244,
      "Į": 245,
      "į": 246,
      "İ": 247,
      "ı": 248,
      "Ĳ": 249,
      "ĳ": 250,
      "Ĵ": 251,
      "ĵ": 252,
      "Ķ": 253,
      "ķ": 254,
      "ĸ": 255,
      "Ĺ": 256,
      "ĺ": 257,
      "Ļ": 258,
      "ļ": 259,
      "Ľ": 260,
      "ľ": 261,
      "Ŀ": 262,
      "ŀ": 263,
      "Ł": 264,
      "ł": 265,
      "Ń": 266,
      "Ã¢": 267,
      "Ä±": 268,
      "Ã¼": 269,
      "er": 270,
      "ÅŁ": 271,
      "Ã®": 272,
      "Ġb": 273,
      "ar": 274,
      "Ġk": 275,
      "de": 276,
      "in": 277,
      "Ġm": 278,
      "ir": 279,
      "le": 280,
      "Ġv": 281,
      "Ã¢n": 282,
      "Ġi": 283,
      "an": 284,
      "Ġe": 285,
      "Ġh": 286,
      "Ġo": 287,
      "Ġg": 288,
      "en": 289,
      "Ġs": 290,
      "Ã»": 291,
      "Ä±n": 292,
      "Ġve": 293,
      "Ġol": 294,
      "Ġd": 295,
      "Ã§": 296,
      "ÄŁ": 297,
      "Ġt": 298,
      "Ã¢r": 299,
      "ler": 300,
      "Ġy": 301,
      "al": 302,
      "et": 303,
      "ur": 304,
      "di": 305,
      "lar": 306,
      "ak": 307,
      "Ã¼n": 308,
      "il": 309,
      "ĠÅŁ": 310,
      "Ġc": 311,
      "Ġa": 312,
      "me": 313,
      "Ġn": 314,
      "Ä±r": 315,
      "Ġ1": 316,
      "ĠM": 317,
      "ah": 318,
      "ĠB": 319,
      "em": 320,
      "Ã¶": 321,
      "ĠH": 322,
      "iy": 323,
      "Ã¢m": 324,
      "el": 325,
      "Ã¢h": 326,
      "Ġ2": 327,
      "Ġbir": 328,
      "im": 329,
      "da": 330,
      "ey": 331,
      "Ã¼r": 332,
      "Ã¢l": 333,
      "un": 334,
      "az": 335,
      "es": 336,
      "ĠA": 337,
      "Ã¼m": 338,
      "ay": 339,
      "as": 340,
      "ĠK": 341,
      "re": 342,
      "at": 343,
      "ĠS": 344,
      "eh": 345,
      "Ġbu": 346,
      "aÅŁ": 347,
      "Ã¢t": 348,
      "ek": 349,
      "Ġde": 350,
      "Ã¼z": 351,
      "am": 352,
      "Ã¼p": 353,
      "dan": 354,
      "den": 355,
      "Ġz": 356,
      "Ã¢b": 357,
      "Ġ3": 358,
      "ĠE": 359,
      "ev": 360,
      "Ä°": 361,
      "Ã¼l": 362,
      "Ġ'": 363,
      "up": 364,
      "st": 365,
      "Ã¢y": 366,
      "Ġile": 367,
      "iÅŁ": 368,
      "ĠÃ§": 369,
      "ad": 370,
      "Ġf": 371,
      "Ġp": 372,
      "..": 373,
      "dir": 374,
      "ĠV": 375,
      "ib": 376,
      "ĠÄ°": 377,
      "'d": 378,
      "Ã±": 379,
      "Ġ(": 380,
      "Ã®r": 381,
      "iz": 382,
      "Ã¢d": 383,
      "Ã¢s": 384,
      "Ġed": 385,
      "eb": 386,
      "ĠN": 387,
      "ine": 388,
      "ab": 389,
      "Ã¢k": 390,
      "ĠÃ¼": 391,
      "inde": 392,
      "ik": 393,
      "Ã®n": 394,
      "is": 395,
      "eÅŁ": 396,
      "ĠÃ": 397,
      "ul": 398,
      "dÄ±r": 399,
      "ĠT": 400,
      "Äģ": 401,
      "ĠmÃ¼": 402,
      "Ġr": 403,
      "Ġey": 404,
      "ĠD": 405,
      "Åŀ": 406,
      "dur": 407,
      "Ä±l": 408,
      "Ã¢z": 409,
      "um": 410,
      "ĠgÃ¶": 411,
      "aÄŁ": 412,
      "Ä±k": 413,
      "ĠVe": 414,
      "Ġkal": 415,
      "á¸": 416,
      "ĠÅŀ": 417,
      "ih": 418,
      "ed": 419,
      "larÄ±": 420,
      "leri": 421,
      "Ġet": 422,
      "ye": 423,
      "du": 424,
      "Ġ[": 425,
      "ef": 426,
      "Ä±nda": 427,
      "âĢ": 428,
      "Ã»n": 429,
      "ĠG": 430,
      "Ä±ÅŁ": 431,
      "Ã»r": 432,
      "Ã¢f": 433,
      "Ġolm": 434,
      "id": 435,
      "Ġvar": 436,
      "ez": 437,
      "dÄ±": 438,
      "Ġmu": 439,
      "Ġu": 440,
      "ĠiÃ§": 441,
      "Ã¢de": 442,
      "ĠC": 443,
      "it": 444,
      "Ġ4": 445,
      "Ġkim": 446,
      "Ġal": 447,
      "ĠY": 448,
      "miÅŁ": 449,
      "ĠR": 450,
      "af": 451,
      "Ã¼k": 452,
      "li": 453,
      "ĠF": 454,
      "ĠP": 455,
      "Ã®m": 456,
      "av": 457,
      "Ġ5": 458,
      "Ġder": 459,
      "Ã¼mle": 460,
      "ol": 461,
      "Ġolup": 462,
      "ec": 463,
      "Ä±na": 464,
      "ki": 465,
      "se": 466,
      "ret": 467,
      "Ġl": 468,
      "ĠedÃ¼p": 469,
      "mÃ¢": 470,
      "Ġbin": 471,
      "ok": 472,
      "Ġan": 473,
      "uÅŁ": 474,
      "sl": 475,
      "ĠyÃ¼z": 476,
      "med": 477,
      "Ä±m": 478,
      "ap": 479,
      "on": 480,
      "Ġ\"": 481,
      "Ġeyle": 482,
      "ĠcÃ¢n": 483,
      "Ã¢le": 484,
      "ĠÅŁeh": 485,
      "yÄ±": 486,
      "ĠBu": 487,
      "lerin": 488,
      "ele": 489,
      "ibi": 490,
      "Ê»": 491,
      "Ġsen": 492,
      "ĠcÃ¼mle": 493,
      "ĠÃ¼z": 494,
      "larÄ±n": 495,
      "Ä±z": 496,
      "**": 497,
      "Ùİ": 498,
      "esi": 499,
      "Ġá¸": 500,
      "##": 501,
      "Ġmah": 502,
      "dÃ¼r": 503,
      "endi": 504,
      "Ġki": 505,
      "ĠO": 506,
      "Ġit": 507,
      "Ġeder": 508,
      "aÅŁa": 509,
      "Ã¼s": 510,
      "Ġel": 511,
      "Ġoldu": 512,
      "Ġgel": 513,
      "ĠÃĩ": 514,
      "ce": 515,
      "mÃ¢n": 516,
      "Ġdil": 517,
      "uz": 518,
      "asÄ±": 519,
      "Ġdah": 520,
      "iÃ§": 521,
      "uh": 522,
      "Ä±s": 523,
      "ĠZ": 524,
      "Ġ-": 525,
      "Ġolan": 526,
      "Ã¼ÅŁ": 527,
      "Ġgibi": 528,
      "Ã®l": 529,
      "Ã¢ne": 530,
      "der": 531,
      "Ġolur": 532,
      "or": 533,
      "te": 534,
      "Ġolun": 535,
      "la": 536,
      "lÄ±": 537,
      "Ġ##": 538,
      "Ġher": 539,
      "Ġben": 540,
      "Ġser": 541,
      "mmÃ¢": 542,
      "âĢ¦": 543,
      "Ã»m": 544,
      "âĢĵ": 545,
      "us": 546,
      "Ġtar": 547,
      "Ã¢ÅŁ": 548,
      "Ġdahi": 549,
      "Ø§": 550,
      "ĠPaÅŁa": 551,
      "ĠgÃ¶r": 552,
      "si": 553,
      "uÃ±": 554,
      "Ä±y": 555,
      "Ġkar": 556,
      "ĠÃ¼zre": 557,
      "Ġ6": 558,
      "mek": 559,
      "iyye": 560,
      "....": 561,
      "if": 562,
      "ken": 563,
      "sa": 564,
      "Ä«": 565,
      "ac": 566,
      "Ġkad": 567,
      "Ġ7": 568,
      "alar": 569,
      "Ġma": 570,
      "fendi": 571,
      "Ã®f": 572,
      "Ã®b": 573,
      "Ġes": 574,
      "ĠÃĤ": 575,
      "Ã®d": 576,
      "ĠÃ¶": 577,
      "Ġidi": 578,
      "ud": 579,
      "Ã¢yet": 580,
      "ĠbaÅŁ": 581,
      "Ġle": 582,
      "eri": 583,
      "mez": 584,
      "Ä±ndan": 585,
      "ĠAn": 586,
      "Ã¢mi": 587,
      "Ã¢v": 588,
      "uk": 589,
      "azret": 590,
      "Ã®h": 591,
      "á¹": 592,
      "âĢ¦âĢ¦": 593,
      "ini": 594,
      "Ã¢ÄŁ": 595,
      "be": 596,
      "dÃ¼": 597,
      "ahr": 598,
      "Ġiki": 599,
      "met": 600,
      "Ġas": 601,
      "tÃ¢n": 602,
      "ÙĦ": 603,
      "mÄ±ÅŁ": 604,
      "ĠgÃ¼n": 605,
      "Ġre": 606,
      "ĠEfendi": 607,
      "ka": 608,
      "Ġ\\": 609,
      "Ġhay": 610,
      "âĢĵ)": 611,
      "ĠL": 612,
      "inden": 613,
      "vÃ¢n": 614,
      "slÃ¢m": 615,
      "Ġ(âĢĵ)": 616,
      "dÃ¢r": 617,
      "Ġin": 618,
      "ya": 619,
      "Ġar": 620,
      "ĠgÃ¼l": 621,
      "ra": 622,
      "Ä±nÄ±": 623,
      "Ġ10": 624,
      "yÃ¢": 625,
      "Ġbul": 626,
      "Ã»l": 627,
      "Ã¢c": 628,
      "Ã»d": 629,
      "ri": 630,
      "Ġ9": 631,
      "lÃ¢h": 632,
      "ĠÄ°slÃ¢m": 633,
      "ley": 634,
      "Ġ13": 635,
      "Ġne": 636,
      "ker": 637,
      "ĠÅŁer": 638,
      "ma": 639,
      "ĠdÃ¶": 640,
      "Ġmer": 641,
      "eng": 642,
      "Ġyer": 643,
      "Ã¼f": 644,
      "ĠNaz": 645,
      "ĠBir": 646,
      "ultÃ¢n": 647,
      "Ġaz": 648,
      "Ã±a": 649,
      "Ġev": 650,
      "Ã®re": 651,
      "Ġbil": 652,
      "Å«": 653,
      "akk": 654,
      "mi": 655,
      "ig": 656,
      "Ġalt": 657,
      "ca": 658,
      "Ġ8": 659,
      "Ġist": 660,
      "ĠcÃ¢mi": 661,
      "Ġdey": 662,
      "Ã¢sÄ±": 663,
      "Ã¼y": 664,
      "eyh": 665,
      "Ã¼t": 666,
      "):": 667,
      "ub": 668,
      "Ġetdi": 669,
      "ÄŁi": 670,
      "Ġon": 671,
      "ĠvardÄ±r": 672,
      "ĠAl": 673,
      "Ġver": 674,
      "Ġat": 675,
      "Ġay": 676,
      "iyy": 677,
      "ut": 678,
      "Ġkap": 679,
      "Ġil": 680,
      "Ġ19": 681,
      "Ġyok": 682,
      "Ã¶y": 683,
      "Ġba": 684,
      "ne": 685,
      "'-": 686,
      "eÃ§": 687,
      "ĠhÃ¢l": 688,
      "Ġhar": 689,
      "Ġyine": 690,
      "Ġ15": 691,
      "Ã»s": 692,
      "Ġmes": 693,
      "Ġkur": 694,
      "Ã¢nÄ±": 695,
      "Ġ**": 696,
      "Ġtaraf": 697,
      "ic": 698,
      "'m": 699,
      "Ġcem": 700,
      "Ã¼Ã±": 701,
      "ĠHazret": 702,
      "iyÃ¢r": 703,
      "ber": 704,
      "ĠHÃ¢n": 705,
      "let": 706,
      "Ġdev": 707,
      "ded": 708,
      "ĠÅŁehr": 709,
      "iÃ§e": 710,
      "ilÃ¢t": 711,
      "iyle": 712,
      "ĠÙ": 713,
      "ĠaÄŁ": 714,
      "oÄŁ": 715,
      "Ġ11": 716,
      "Ã»h": 717,
      "-)": 718,
      "ĠÃ¼Ã§": 719,
      "Ġ20": 720,
      "Ã»b": 721,
      "Ġta": 722,
      "iye": 723,
      "Ġib": 724,
      "ĠÃ¢h": 725,
      "Ã¢di": 726,
      "Ġmuh": 727,
      "Ġhal": 728,
      "Ġih": 729,
      "edi": 730,
      "Ã¢lÃ®": 731,
      "Ã¼nÃ¼": 732,
      "ĠammÃ¢": 733,
      "ĠMeh": 734,
      "ĠØ": 735,
      "Ġ16": 736,
      "Ġ12": 737,
      "Ġbun": 738,
      "aÄŁÄ±": 739,
      "ĠbÃ®": 740,
      "ĠeÅŁ": 741,
      "Ã¢nÃ®": 742,
      "end": 743,
      "Ġ14": 744,
      "ire": 745,
      "Ã®z": 746,
      "Ã®k": 747,
      "ĠAh": 748,
      "Ġ(-)": 749,
      "ere": 750,
      "Ġbey": 751,
      "Ġ18": 752,
      "Ã§e": 753,
      "Ġ27": 754,
      "ta": 755,
      "Ġ25": 756,
      "Ġ....": 757,
      "Ġak": 758,
      "Ã¢rÃ®h": 759,
      "Ġ17": 760,
      "Ġmahal": 761,
      "Ã¼d": 762,
      "lu": 763,
      "ĠMÄ±s": 764,
      "oÅŁ": 765,
      "ĠÃ§Ä±k": 766,
      "ile": 767,
      "Ã¼c": 768,
      "vÃ¢r": 769,
      "Ä±b": 770,
      "Ġá¸«": 771,
      "Ġ26": 772,
      "op": 773,
      "Ġger": 774,
      "Ġda": 775,
      "ehr": 776,
      "Ġ22": 777,
      "ÙĴ": 778,
      "ĠOl": 779,
      "Ġ21": 780,
      "ĠU": 781,
      "Ġ28": 782,
      "aya": 783,
      "ilÃ¢tÃ¼n": 784,
      "ĠÃ¢de": 785,
      "ĠcÃ¢nib": 786,
      "Ġ23": 787,
      "Ġkadar": 788,
      "ĠAmmÃ¢": 789,
      "mak": 790,
      "Ġ29": 791,
      "ĠolduÄŁ": 792,
      "ĠiÃ§re": 793,
      "Ã¢re": 794,
      "ÙĲ": 795,
      "Ġber": 796,
      "ĠniÃ§e": 797,
      "Ġter": 798,
      "Ġbe": 799,
      "Ã¼lf": 800,
      "eth": 801,
      "Ġ30": 802,
      "ĠkÄ±l": 803,
      "Ġbiz": 804,
      "Ġ31": 805,
      "Äģn": 806,
      "ĠMÄ±sÄ±r": 807,
      "Ġtah": 808,
      "ĠÄŁ": 809,
      "Ġaded": 810,
      "'s": 811,
      "Ġer": 812,
      "inin": 813,
      "Ġen": 814,
      "Ġgir": 815,
      "ĠGÃ¶": 816,
      "ĠsÃ¢": 817,
      "ĠEy": 818,
      "vel": 819,
      "ti": 820,
      "Ġsa": 821,
      "Ġkat": 822,
      "stÃ¢n": 823,
      "ĠkÄ±r": 824,
      "bi": 825,
      "ÃĤ": 826,
      "dem": 827,
      "Ġ24": 828,
      "'t": 829,
      "oy": 830,
      "ara": 831,
      "Ġsene": 832,
      "ĠdÃ®": 833,
      "âģ": 834,
      "ĠiÅŁ": 835,
      "ĠazÃ®m": 836,
      "eti": 837,
      "Ġhem": 838,
      "ĠhÃ¢k": 839,
      "Ġmez": 840,
      "Ġfer": 841,
      "mÃ¢m": 842,
      "ĠgÃ¶z": 843,
      "Ġid": 844,
      "Ġmed": 845,
      "yi": 846,
      "ĠbÃ¢ÄŁ": 847,
      "lem": 848,
      "Ġ32": 849,
      "ĠgeÃ§": 850,
      "Ä±ÄŁ": 851,
      "ĠSultÃ¢n": 852,
      "eli": 853,
      "Ã¶yle": 854,
      "ĠdeÄŁ": 855,
      "Ġmey": 856,
      "Ã¼b": 857,
      "ĠdÃ¼ÅŁ": 858,
      "ĠÃ¢dem": 859,
      "att": 860,
      "ĠMuh": 861,
      "zÃ¢de": 862,
      "ĠolmuÅŁ": 863,
      "ĠEv": 864,
      "Ã¢rÄ±": 865,
      "gÃ¢h": 866,
      "Ġah": 867,
      "á¹£": 868,
      "ĠgÃ¶n": 869,
      "Ġyaz": 870,
      "Ġken": 871,
      "aÃ§": 872,
      "Ã®s": 873,
      "nin": 874,
      "ÅŁÃ¢h": 875,
      "ĠtaÅŁ": 876,
      "á¸¥": 877,
      "ĠbeÅŁ": 878,
      "Ùı": 879,
      "imiz": 880,
      "ĠdeyÃ¼": 881,
      "td": 882,
      "ihr": 883,
      "ĠÃ¢b": 884,
      "efÃ¢": 885,
      "ÙĨ": 886,
      "ĠmÃ¼n": 887,
      "dÃ¢n": 888,
      "maz": 889,
      "Ã»ÅŁ": 890,
      "Ġsar": 891,
      "Ġham": 892,
      "bet": 893,
      "Ġederler": 894,
      "ĠtÃ¢rÃ®h": 895,
      "Ġasker": 896,
      "ĠÅŁÃ¢h": 897,
      "cak": 898,
      "ĠmeÅŁ": 899,
      "lÃ¼": 900,
      "Ġker": 901,
      "ci": 902,
      "tir": 903,
      "ĠAb": 904,
      "dÃ¼m": 905,
      "Ã¼h": 906,
      ":**": 907,
      "Ġis": 908,
      "Ġsan": 909,
      "ĠAhmed": 910,
      "ÄŁer": 911,
      "Ġkan": 912,
      "Ġ33": 913,
      "ĠhÃ¢n": 914,
      "uy": 915,
      "ĠDer": 916,
      "Ġkav": 917,
      "man": 918,
      "Ùħ": 919,
      "Ġ|": 920,
      "Ġdem": 921,
      "ĠÃ¼st": 922,
      "Ġdi": 923,
      "eye": 924,
      "ĠÃ§ek": 925,
      "sin": 926,
      "Ġider": 927,
      "ĠAndan": 928,
      "Ġmev": 929,
      "iyet": 930,
      "efer": 931,
      "lah": 932,
      "lÃ¢": 933,
      "ĠiÃ§inde": 934,
      "lara": 935,
      "Ġ34": 936,
      "iyÃ¢n": 937,
      "ĠÄ°s": 938,
      "elÃ¢m": 939,
      "Ġcih": 940,
      "ayÄ±": 941,
      "ĠFÃ¢": 942,
      "^{": 943,
      "Ġ\\(": 944,
      "lerdir": 945,
      "stan": 946,
      "ver": 947,
      "Ġ\\)": 948,
      "Ġzam": 949,
      "Ġem": 950,
      "Ġik": 951,
      "muÅŁ": 952,
      "><": 953,
      "ĠgelÃ¼p": 954,
      "Ġnaz": 955,
      "Ġyan": 956,
      "Ġtop": 957,
      "alÄ±": 958,
      "ĠnÃ¢m": 959,
      "Ġgid": 960,
      "Ġedi": 961,
      "ĠetmiÅŁ": 962,
      "ĠÃľ": 963,
      "len": 964,
      "mey": 965,
      "Ä±nÄ±n": 966,
      "Ġmak": 967,
      "dik": 968,
      "Ġ^{": 969,
      "Ġbel": 970,
      "eyn": 971,
      "Ø§ÙĦ": 972,
      "ede": 973,
      "ter": 974,
      "Ġmen": 975,
      "Ġyedi": 976,
      "ĠÅŁerÃ®f": 977,
      "Ġkul": 978,
      "elebi": 979,
      "Ġ.": 980,
      "Ġhak": 981,
      "ĠSÃ¼": 982,
      "Ã¢lÃ¢": 983,
      "ĠbinÃ¢": 984,
      "res": 985,
      "Ã¢diÅŁÃ¢h": 986,
      "ĠiÃ§in": 987,
      "Ġyokdur": 988,
      "Ġvir": 989,
      "Ġson": 990,
      "Ġiken": 991,
      "ĠAr": 992,
      "eg": 993,
      "Ã¢li": 994,
      "Ġeh": 995,
      "Ġtek": 996,
      "Ġkem": 997,
      "ĠNazÃ®re": 998,
      "Ã¼nde": 999,
      "mes": 1000,
      "ĠBa": 1001,
      "ba": 1002,
      "ĠMu": 1003,
      "ĠÄ": 1004,
      "ĠzÃ¼lf": 1005,
      "ĠÃ¢s": 1006,
      "Ġbulun": 1007,
      "br": 1008,
      "bÃ»r": 1009,
      "unda": 1010,
      "lerine": 1011,
      "ĠyÃ¢r": 1012,
      "Ġir": 1013,
      "ĠmÃ¢l": 1014,
      "Ã®ne": 1015,
      "Ġola": 1016,
      "Ġim": 1017,
      "ĠoldÄ±": 1018,
      "ĠÃĩelebi": 1019,
      "ĠmÃ¼ÅŁ": 1020,
      "Ã¢lem": 1021,
      "Ġede": 1022,
      "lerinde": 1023,
      "ayr": 1024,
      "lik": 1025,
      "una": 1026,
      "Ġmuk": 1027,
      "ĠHer": 1028,
      "Ġper": 1029,
      "Ġï": 1030,
      "ĠSÃ¼ley": 1031,
      "Ġ/": 1032,
      "mer": 1033,
      "emmed": 1034,
      "Ã¢let": 1035,
      "Ùĩ": 1036,
      "evk": 1037,
      "yÃ¢n": 1038,
      "ÙĬ": 1039,
      "Ġte": 1040,
      "lardÄ±r": 1041,
      "ĠpÃ¼r": 1042,
      "iyÃ¢": 1043,
      "lÄ±k": 1044,
      "ĠdeÄŁil": 1045,
      "Ã¼sn": 1046,
      "lÃ®": 1047,
      "Ġsey": 1048,
      "Ġise": 1049,
      "ilÃ¼n": 1050,
      "Ã¼rk": 1051,
      "ve": 1052,
      "ĠAÄŁ": 1053,
      "ĠsÃ¼r": 1054,
      "Ġyir": 1055,
      "ĠvÃ¼": 1056,
      "bÃ¢n": 1057,
      "ĠMehemmed": 1058,
      "Ġgar": 1059,
      "Ġtab": 1060,
      "adÄ±r": 1061,
      "uf": 1062,
      "tÄ±r": 1063,
      "isi": 1064,
      "Ġyol": 1065,
      "aÅŁÄ±": 1066,
      "Ã®de": 1067,
      "Ġmek": 1068,
      "Ä±ÅŁk": 1069,
      "ser": 1070,
      "ĠOs": 1071,
      "Ġderler": 1072,
      "ice": 1073,
      "ĠSen": 1074,
      "dak": 1075,
      "ĠiÃ§Ã¼n": 1076,
      "adÄ±": 1077,
      "Ġkab": 1078,
      "Ġmi": 1079,
      "ĠÃ§eÅŁ": 1080,
      "Ġya": 1081,
      "á¸³": 1082,
      "lere": 1083,
      "san": 1084,
      "sun": 1085,
      "Ġsek": 1086,
      "ĠaÅŁ": 1087,
      "nÃ¢": 1088,
      "Ġbi": 1089,
      "ĠÅŁar": 1090,
      "ĠnÃ¢": 1091,
      "Ã®rÃ¢": 1092,
      "Ġyet": 1093,
      "Ã®ÅŁ": 1094,
      "Ã¢ya": 1095,
      "Ġnehr": 1096,
      "Ġmeh": 1097,
      "ende": 1098,
      "Ã¢hir": 1099,
      "nÃ®": 1100,
      "Ġ.....": 1101,
      "ĠidÃ¼p": 1102,
      "usu": 1103,
      "lan": 1104,
      "á¸«": 1105,
      "arak": 1106,
      "ĠÃĸ": 1107,
      "Ê¿": 1108,
      "Ġtahr": 1109,
      "ĠtÃ¢": 1110,
      "ĠSÃ¼leymÃ¢n": 1111,
      "uÄŁ": 1112,
      "âĢ¦âĢ¦âĢ¦âĢ¦": 1113,
      "Ġur": 1114,
      "ÙĪ": 1115,
      "Ġkay": 1116,
      "Ġdef": 1117,
      "Ġetme": 1118,
      "Ġcev": 1119,
      "afÃ¢": 1120,
      "dÃ¢d": 1121,
      "Ø±": 1122,
      "dÃ¼k": 1123,
      "ke": 1124,
      "Ġ35": 1125,
      "Ġtev": 1126,
      "hÃ¢ne": 1127,
      "Ã»z": 1128,
      "rt": 1129,
      "Ġzer": 1130,
      "ĠkÃ¢r": 1131,
      "Ġmec": 1132,
      "Ġme": 1133,
      "ĠÃ§ok": 1134,
      "ĠpÃ¢diÅŁÃ¢h": 1135,
      "diler": 1136,
      "ĠmÃ¼l": 1137,
      "Ġseb": 1138,
      "din": 1139,
      "Ġsu": 1140,
      "rÃ¢n": 1141,
      "net": 1142,
      "ĠhÃ¢s": 1143,
      "ĠolmÄ±ÅŁ": 1144,
      "Ġmet": 1145,
      "ĠÅŁu": 1146,
      "Ġdir": 1147,
      "Ġeden": 1148,
      "Ã¢ret": 1149,
      "ĠÅŁim": 1150,
      "Ã»f": 1151,
      "ĠCÃ¼mle": 1152,
      "Ġehl": 1153,
      "kÃ¢n": 1154,
      "ĠnÃ¢z": 1155,
      "ĠgÃ¢yet": 1156,
      "Ġkaz": 1157,
      "ĠBey": 1158,
      "Äģr": 1159,
      "ĠkÃ¼f": 1160,
      "ĠKur": 1161,
      "tur": 1162,
      "Ġhav": 1163,
      "ĠhÃ¼k": 1164,
      "Ġka": 1165,
      "ĠBun": 1166,
      "Ġsonra": 1167,
      "ĠkalÊ»": 1168,
      "ĠsÃ¢h": 1169,
      "ÄŁÄ±": 1170,
      "udÃ¢": 1171,
      "ger": 1172,
      "ĠMÃ¼": 1173,
      "vÃ¢": 1174,
      "eyy": 1175,
      "Ġolmaz": 1176,
      "Ġla": 1177,
      "Ġkas": 1178,
      "tan": 1179,
      "Ġtem": 1180,
      "sÃ¢f": 1181,
      "Ġmihr": 1182,
      "Ġmur": 1183,
      "Ġolduk": 1184,
      "lÃ¼m": 1185,
      "hu": 1186,
      "eÄŁ": 1187,
      "ĠEb": 1188,
      "ĠtahrÃ®r": 1189,
      "elek": 1190,
      "itÃ¢b": 1191,
      "ĠkÄ±rk": 1192,
      "Ġeyler": 1193,
      "ĠgÃ»n": 1194,
      "lerinden": 1195,
      "Ġbah": 1196,
      "ĠaÃ§": 1197,
      "Ġnak": 1198,
      "ĠØ§ÙĦ": 1199,
      "Ã¢rÃ®": 1200,
      "ĠCem": 1201,
      "á¹Ń": 1202,
      "Ġleb": 1203,
      "ĠhammÃ¢m": 1204,
      "ĠgÃ¼z": 1205,
      "Ä±yla": 1206,
      "ĠÅŁem": 1207,
      "asÄ±nda": 1208,
      "Ã¢yÄ±": 1209,
      "ĠdÃ¢": 1210,
      "ayup": 1211,
      "anÄ±n": 1212,
      "esinde": 1213,
      "alarÄ±": 1214,
      "Ä±f": 1215,
      "ĠhÃ¼sn": 1216,
      "nÃ¢f": 1217,
      "ĠmÃ¢h": 1218,
      "Ġgit": 1219,
      "Ġmin": 1220,
      "arr": 1221,
      "zÄ±": 1222,
      "Ġcen": 1223,
      ".\"": 1224,
      "irmi": 1225,
      "ĠcihÃ¢n": 1226,
      "ĠÃ¢t": 1227,
      "Ã¢met": 1228,
      "Ġdest": 1229,
      "Ã¢tÄ±": 1230,
      "men": 1231,
      "bÃ¼l": 1232,
      "ĠaltÄ±": 1233,
      "ĠkÃ¼ff": 1234,
      "Ã¢det": 1235,
      "ĠSel": 1236,
      "Ã¢zÃ®": 1237,
      "gi": 1238,
      "Ġhas": 1239,
      "hÃ¢n": 1240,
      "Ġkapu": 1241,
      "ada": 1242,
      "ĠHas": 1243,
      "Ġkes": 1244,
      "ĠdiyÃ¢r": 1245,
      "Ä±t": 1246,
      "ĠbenÃ¼m": 1247,
      "Ġget": 1248,
      "ĠcemÃ®": 1249,
      "ammed": 1250,
      "bÃ¢b": 1251,
      "Ġek": 1252,
      "Ã§i": 1253,
      "ĠkÃ¶": 1254,
      "Ġbiri": 1255,
      "Ġruh": 1256,
      "ĠâĢĵ": 1257,
      "mr": 1258,
      "na": 1259,
      "Ġhalk": 1260,
      "Ã¢dÄ±r": 1261,
      "Ø§Ø": 1262,
      "Ã¢kin": 1263,
      "Ġyap": 1264,
      "ehu": 1265,
      "cÄ±": 1266,
      "ĠolduÄŁu": 1267,
      "ĠÄŁam": 1268,
      "ĠBen": 1269,
      "enin": 1270,
      "det": 1271,
      "ĠimiÅŁ": 1272,
      "Ã¶z": 1273,
      "ĠmÄ±": 1274,
      "Ġ......": 1275,
      "Ã»k": 1276,
      "ĠkarÅŁ": 1277,
      "zam": 1278,
      "ĠbaÃ±a": 1279,
      "zil": 1280,
      "ince": 1281,
      "ĠMes": 1282,
      "sÃ¢n": 1283,
      "Ã¢kÃ®": 1284,
      "Ġyig": 1285,
      "Ġten": 1286,
      "ĠmÃ¼t": 1287,
      "ster": 1288,
      "Ġhakk": 1289,
      "Ġsem": 1290,
      "ĠÅŀeyh": 1291,
      "aba": 1292,
      "imÃ¢": 1293,
      "ĠkÃ¢f": 1294,
      "lerinin": 1295,
      "Ġolsa": 1296,
      "ĠMefÃ¢": 1297,
      "Ġko": 1298,
      "ĠÃ¢teÅŁ": 1299,
      "Ġfeth": 1300,
      "kÃ¢r": 1301,
      "ip": 1302,
      "gÃ¼n": 1303,
      "Ġeyledi": 1304,
      "ĠMuhammed": 1305,
      "ĠAÄŁa": 1306,
      "Ġá¸¤": 1307,
      "Ġá¸¥": 1308,
      "ĠNe": 1309,
      "Ġkub": 1310,
      "ĠubÃ»r": 1311,
      "emi": 1312,
      "Ã¢da": 1313,
      "Ġserv": 1314,
      "ĠdÃ¼n": 1315,
      "ĠOsmÃ¢n": 1316,
      "Ġef": 1317,
      "ahm": 1318,
      "Ġnazar": 1319,
      "dum": 1320,
      "Ġtak": 1321,
      "ĠRÃ»m": 1322,
      "bir": 1323,
      "dÃ®n": 1324,
      "Ġvil": 1325,
      "Ġhan": 1326,
      "ĠÅŁek": 1327,
      "dÃ®": 1328,
      "Ġdiy": 1329,
      "ĠÄ°n": 1330,
      "Ġolmak": 1331,
      "ĠÅŁey": 1332,
      "ĠHay": 1333,
      "Ġhev": 1334,
      "zÃ®r": 1335,
      "ĠHudÃ¢": 1336,
      "Ġelli": 1337,
      "ĠkÃ¼ffÃ¢r": 1338,
      "teb": 1339,
      "Ġhazret": 1340,
      "ĠdaÄŁ": 1341,
      "Ã¢ye": 1342,
      "Ġandan": 1343,
      "Ã»t": 1344,
      "larÄ±ndan": 1345,
      "Ġeyley": 1346,
      "Ġolunur": 1347,
      "ĠÄ°br": 1348,
      "ĠmÃ¢": 1349,
      "Ġdur": 1350,
      "Ġdeg": 1351,
      "Ġhaz": 1352,
      "nÄ±n": 1353,
      "Ġkerre": 1354,
      "asÄ±n": 1355,
      "Ġgaz": 1356,
      "ĠÅŁehir": 1357,
      "ĠyaÅŁ": 1358,
      "larÄ±na": 1359,
      "iyyet": 1360,
      "Ġsiy": 1361,
      "ĠKar": 1362,
      "Ġkoy": 1363,
      "cek": 1364,
      "ĠMur": 1365,
      "Ġmem": 1366,
      "Ã¼ne": 1367,
      "ĠGer": 1368,
      "leyh": 1369,
      "Ġpey": 1370,
      "Ġok": 1371,
      "Ġvak": 1372,
      "Ġbirer": 1373,
      "Ġyak": 1374,
      "ĠHÃ¼s": 1375,
      "Ġide": 1376,
      "ĠI": 1377,
      "lerde": 1378,
      "lardan": 1379,
      "ĠsÄ±r": 1380,
      "Ä±p": 1381,
      "Ã¼man": 1382,
      "ĠsultÃ¢n": 1383,
      "Ġsev": 1384,
      "Ġederek": 1385,
      "larÄ±nda": 1386,
      "ĠEr": 1387,
      "ĠAk": 1388,
      "ĠmÃ¼b": 1389,
      "Ġzem": 1390,
      "iyÃ¢ret": 1391,
      "ĠbÃ¶yle": 1392,
      "isÃ¢l": 1393,
      "ola": 1394,
      "Ġá¸³": 1395,
      "Ä±nca": 1396,
      "ĠbÃ¢z": 1397,
      "Ä±h": 1398,
      "ĠEvvel": 1399,
      "ĠMek": 1400,
      "aÄŁa": 1401,
      "Ġmahalle": 1402,
      "ĠmÃ¼s": 1403,
      "mel": 1404,
      "ĠÃ§eÅŁm": 1405,
      "ĠdÃ¢r": 1406,
      "leb": 1407,
      "Ġbeni": 1408,
      "ĠHal": 1409,
      "Ã§a": 1410,
      "ÄŁe": 1411,
      "Ġdevlet": 1412,
      "Ã¼Ã§": 1413,
      "Ġkendi": 1414,
      "ĠÅŁeyh": 1415,
      "sen": 1416,
      "eyi": 1417,
      "ĠmÃ¼st": 1418,
      "ĠdeÄŁildir": 1419,
      "erh": 1420,
      "Ġgider": 1421,
      "Ġyigirmi": 1422,
      "ĠmÃ¼c": 1423,
      "Ä±dÄ±r": 1424,
      "ĠÅŁeb": 1425,
      "00": 1426,
      "ĠTÃ¼rk": 1427,
      "ĠvilÃ¢yet": 1428,
      "ĠÃ¢l": 1429,
      "ĠGÃ¼l": 1430,
      "slÃ¼man": 1431,
      "ĠÃ§Ä±kar": 1432,
      "Ġbez": 1433,
      "Ġsal": 1434,
      "Ġceb": 1435,
      "Ġiht": 1436,
      "ĠGÃ¶r": 1437,
      "ĠhÃ¢r": 1438,
      "ikr": 1439,
      "´¿": 1440,
      "Ø¯": 1441,
      "Ġnev": 1442,
      "ĠEl": 1443,
      "Ä±mÄ±z": 1444,
      "dÃ¢": 1445,
      "ĠHakk": 1446,
      "Ġkon": 1447,
      "Ġ{": 1448,
      "ĠmÃ¼r": 1449,
      "idÃ¢": 1450,
      "Ġetdik": 1451,
      "Ã¢yÃ®": 1452,
      "ĠÃ¶n": 1453,
      "Ã¼tÃ¼n": 1454,
      "ĠAlÃ®": 1455,
      "ĠyÄ±l": 1456,
      "ĠgÃ¶nder": 1457,
      "ĠderyÃ¢": 1458,
      "atÄ±r": 1459,
      "ĠyetmiÅŁ": 1460,
      "ĠtÃ¢rÃ®hinde": 1461,
      "zÃ¢r": 1462,
      "ĠÃ¢lÃ®": 1463,
      "Ġhab": 1464,
      "Ġalup": 1465,
      "ĠEs": 1466,
      "istÃ¢n": 1467,
      "yur": 1468,
      "oz": 1469,
      "ran": 1470,
      "ĠfÃ¢": 1471,
      "Ġgay": 1472,
      "ÅŁk": 1473,
      "duÄŁ": 1474,
      "Ġtes": 1475,
      "Ġ*": 1476,
      "ĠNev": 1477,
      "Ġetmek": 1478,
      "os": 1479,
      "ni": 1480,
      "ĠKim": 1481,
      "Ġmut": 1482,
      "ĠKal": 1483,
      "ĠSer": 1484,
      "dÄ±m": 1485,
      "gÃ»n": 1486,
      "enc": 1487,
      "ĠAbd": 1488,
      "ĠkenÃ¢r": 1489,
      "ĠMed": 1490,
      "ĠFe": 1491,
      "rak": 1492,
      "undan": 1493,
      "cem": 1494,
      "Ġcis": 1495,
      "ĠAy": 1496,
      "Ã¼kkÃ¢n": 1497,
      "Ġceng": 1498,
      "Ġolunup": 1499,
      "ili": 1500,
      "dil": 1501,
      "ĠbÃ¼y": 1502,
      "ĠRes": 1503,
      "Ġolsun": 1504,
      "Ġyen": 1505,
      "ĠMehmed": 1506,
      "</": 1507,
      "ĠHak": 1508,
      "ĠbaÄŁ": 1509,
      "Ġlehu": 1510,
      "ĠÃ»": 1511,
      "Ġbak": 1512,
      "Ġbuyur": 1513,
      "ov": 1514,
      "ĠÃ¢f": 1515,
      "ĠHem": 1516,
      "ĠÃ§Ã¼n": 1517,
      "vet": 1518,
      "dÃ¢rÄ±": 1519,
      "Ġkurb": 1520,
      "Ġiz": 1521,
      "ĠkÃ¢m": 1522,
      "lev": 1523,
      "Ġgetir": 1524,
      "lam": 1525,
      "gr": 1526,
      "Ġibn": 1527,
      "ĠBaÄŁ": 1528,
      "Ġmis": 1529,
      "arÄ±": 1530,
      "Ġhil": 1531,
      "ĠvÃ¢k": 1532,
      "ĠdÃ¶r": 1533,
      "ĠHam": 1534,
      "ĠolunmuÅŁ": 1535,
      "rÃ¢": 1536,
      "Ġitme": 1537,
      "Ġsekiz": 1538,
      "Ġvef": 1539,
      "sem": 1540,
      "unu": 1541,
      "),": 1542,
      "ten": 1543,
      "Ã¢ÅŁÄ±k": 1544,
      "ĠhemÃ¢n": 1545,
      "Ġitdi": 1546,
      "daki": 1547,
      "ge": 1548,
      "ĠÅŁan": 1549,
      "ĠaÃ±a": 1550,
      "ĠpÃ¢re": 1551,
      "Ġderd": 1552,
      "Ã»p": 1553,
      "duk": 1554,
      "Øª": 1555,
      "umuz": 1556,
      "acak": 1557,
      "Ġkapusu": 1558,
      "inci": 1559,
      "ĠoÄŁ": 1560,
      "Ġmerh": 1561,
      "ĠzamÃ¢n": 1562,
      "ĠHasan": 1563,
      "ĠtÃ¼r": 1564,
      "Ġhis": 1565,
      "Ġgerek": 1566,
      "ĠbÃ¢r": 1567,
      "Ø¨": 1568,
      "tr": 1569,
      "Ġ36": 1570,
      "15": 1571,
      "ĠDil": 1572,
      "Ã§Ã¼n": 1573,
      "ullÃ¢h": 1574,
      "Ġgele": 1575,
      "ĠÃ¼m": 1576,
      "emen": 1577,
      "atde": 1578,
      "eyin": 1579,
      "Ġnef": 1580,
      "ĠÅŁi": 1581,
      "Ġad": 1582,
      "ĠMec": 1583,
      "lerini": 1584,
      "ÅŁÃ¢d": 1585,
      "ĠCÃ¢n": 1586,
      "ĠbeyÃ¢n": 1587,
      "Ġmil": 1588,
      "Ġïģ": 1589,
      "ĠgÃ¶ster": 1590,
      "Ġint": 1591,
      "Ġmedf": 1592,
      "Ġnefer": 1593,
      "ĠcÃ¢m": 1594,
      "ĠkÄ±b": 1595,
      "one": 1596,
      "ĠolmuÅŁdur": 1597,
      "lim": 1598,
      "Ġmuht": 1599,
      "mesi": 1600,
      "Ġmahalde": 1601,
      "bul": 1602,
      "Ä±sÄ±": 1603,
      "sÃ¼n": 1604,
      "Ġkir": 1605,
      "Ġhat": 1606,
      "Â¹": 1607,
      "Ùĳ": 1608,
      "acÄ±": 1609,
      "Ġ39": 1610,
      "ĠÅŀÃ¢h": 1611,
      "eyÃ¢n": 1612,
      "Ã¼st": 1613,
      "ĠdegÃ¼l": 1614,
      "ide": 1615,
      "Ã¢lar": 1616,
      "lerden": 1617,
      "ĠHin": 1618,
      "Ġgam": 1619,
      "tÃ¼r": 1620,
      "ĠesnÃ¢f": 1621,
      "ĠteÅŁ": 1622,
      "ĠBeÄŁ": 1623,
      "kÃ»r": 1624,
      "ĠyÃ¢": 1625,
      "misÃ¢l": 1626,
      "Ġec": 1627,
      "ĠanÄ±": 1628,
      "ĠhakÃ®r": 1629,
      "Ã¢lik": 1630,
      "elÃ®": 1631,
      "ep": 1632,
      "Ġsahr": 1633,
      "Ġor": 1634,
      "Ġcer": 1635,
      "isÃ¢n": 1636,
      "ĠÅŀer": 1637,
      "Ġmedres": 1638,
      "Ġez": 1639,
      "ĠÄ°brÃ¢h": 1640,
      "tÃ¢r": 1641,
      "Ã¢dÃ®": 1642,
      "ĠÃ§Ã¢r": 1643,
      "Ġasl": 1644,
      "ĠpÃ¢k": 1645,
      "Ġarz": 1646,
      "ĠÃ¢m": 1647,
      "Ġanda": 1648,
      "Ġï´¿": 1649,
      "Ġic": 1650,
      "ĠKo": 1651,
      "Ġedil": 1652,
      "Ġman": 1653,
      "Ġevvel": 1654,
      "rÃ®": 1655,
      "...": 1656,
      "ĠEvvelÃ¢": 1657,
      "ĠdÃ¼r": 1658,
      "ece": 1659,
      "ĠÃĤl": 1660,
      "Ġbal": 1661,
      "iÅŁÃ¢n": 1662,
      "ĠmeÅŁh": 1663,
      "Ġtut": 1664,
      "ĠgidÃ¼p": 1665,
      "Ġhatt": 1666,
      "Ġam": 1667,
      "ĠCen": 1668,
      "10": 1669,
      "gÃ¢n": 1670,
      "Ġot": 1671,
      "Ġalay": 1672,
      "ze": 1673,
      "Ã¼lbÃ¼l": 1674,
      "ĠÃ¶l": 1675,
      "ral": 1676,
      "medi": 1677,
      "Ġseh": 1678,
      "ĠÃ¼zere": 1679,
      "Ġneh": 1680,
      "ÅŁen": 1681,
      "ĠhÃ¢kim": 1682,
      "ĠhÃ¢t": 1683,
      "of": 1684,
      "ĠkÃ¢fir": 1685,
      "ĠdÃ¶rd": 1686,
      "ĠsaÃ±a": 1687,
      "ĠMust": 1688,
      "Ġnig": 1689,
      "ĠpÃ¢y": 1690,
      "Ġcez": 1691,
      "Ġsah": 1692,
      "ĠÄ°stan": 1693,
      "asÄ±na": 1694,
      "Ġdu": 1695,
      "Ġ42": 1696,
      "ĠMev": 1697,
      "Ġrev": 1698,
      "Ġeser": 1699,
      "Ġhur": 1700,
      "Ġ37": 1701,
      "ĠvÃ¼c": 1702,
      "ĠKara": 1703,
      "Ġ38": 1704,
      "ĠÙĪ": 1705,
      "ĠÙħ": 1706,
      "iÄŁ": 1707,
      "Äģh": 1708,
      "lÃ¢n": 1709,
      "ĠhÃ¢lÃ¢": 1710,
      "ĠmÃ¼z": 1711,
      "ĠpÃ®r": 1712,
      "Ġfe": 1713,
      "ĠziyÃ¢ret": 1714,
      "Ġzaman": 1715,
      "esine": 1716,
      "Ã¢ze": 1717,
      "rÄ±": 1718,
      "Ġï´¿ï": 1719,
      "ĠsÃ¶z": 1720,
      "ĠEm": 1721,
      "ĠtarafÄ±ndan": 1722,
      "idÃ¼r": 1723,
      "ĠvezÃ®r": 1724,
      "lis": 1725,
      "iyÃ¢de": 1726,
      "ĠMen": 1727,
      "atar": 1728,
      "Ġmel": 1729,
      "Ã¢fet": 1730,
      "rÃ¢f": 1731,
      "iv": 1732,
      "ĠhayÃ¢t": 1733,
      "Ġtav": 1734,
      "lek": 1735,
      "ĠHar": 1736,
      "ĠtemÃ¢ÅŁ": 1737,
      "ĠakÃ§e": 1738,
      "16": 1739,
      "tidÃ¢": 1740,
      "ĠÃ¼zer": 1741,
      "ĠmÃ¼h": 1742,
      "ĠkendÃ¼": 1743,
      "fer": 1744,
      "Ġsay": 1745,
      ".....": 1746,
      "ĠMer": 1747,
      "kat": 1748,
      "Ã¢ra": 1749,
      "ĠÄ°stanbul": 1750,
      "Ġ40": 1751,
      "ĠdÃ®vÃ¢r": 1752,
      "mÄ±z": 1753,
      "Ãľ": 1754,
      "Ġkubbe": 1755,
      "ĠÄ°brÃ¢hÃ®m": 1756,
      "Ã¢g": 1757,
      "Ã¼Ã§Ã¼k": 1758,
      "Ø¹": 1759,
      "Ġul": 1760,
      "erek": 1761,
      "Ã»y": 1762,
      "Ġif": 1763,
      "Ġetdiler": 1764,
      "Ã¢zÄ±m": 1765,
      "ĠZÃ®rÃ¢": 1766,
      "ĠKan": 1767,
      "uc": 1768,
      "Ã¢na": 1769,
      "12": 1770,
      "her": 1771,
      "ĠeÅŁk": 1772,
      "ĠdÃ®vÃ¢n": 1773,
      "ĠÃ¢y": 1774,
      "oh": 1775,
      "yÃ¢d": 1776,
      "dÄ±k": 1777,
      "13": 1778,
      "Ġyay": 1779,
      "ĠpaÅŁa": 1780,
      "okuz": 1781,
      "amaz": 1782,
      "ĠtÃ¢b": 1783,
      "uma": 1784,
      "ĠÃ¢ÅŁ": 1785,
      "lÃ¢k": 1786,
      "mÃ®": 1787,
      "edÃ¼r": 1788,
      "Ġyar": 1789,
      "nÃ¼m": 1790,
      "vÃ¢l": 1791,
      "yla": 1792,
      "17": 1793,
      "evÃ®": 1794,
      "cÃ¼": 1795,
      "Ã¢larÄ±": 1796,
      "Ġancak": 1797,
      "per": 1798,
      "var": 1799,
      "ĠmezkÃ»r": 1800,
      "Ã¢me": 1801,
      "Ġrah": 1802,
      "Ä±lmÄ±ÅŁ": 1803,
      "uÃ±a": 1804,
      "elle": 1805,
      "ĠkadÃ®m": 1806,
      "ĠrÃ¢h": 1807,
      "Ġmest": 1808,
      "ĠdÃ¶n": 1809,
      "ĠNazire": 1810,
      "ĠkalÊ»a": 1811,
      "Ã®se": 1812,
      "Ã¢hil": 1813,
      "Ġfir": 1814,
      "inÃ¢n": 1815,
      "Ġgayr": 1816,
      "ĠBur": 1817,
      "ĠmÃ¼d": 1818,
      "ĠkiÅŁ": 1819,
      "ĠBaÅŁ": 1820,
      "Ġyal": 1821,
      "ĠkÃ¢n": 1822,
      "larda": 1823,
      "ikmet": 1824,
      "bol": 1825,
      "tÄ±": 1826,
      "diÄŁi": 1827,
      "Ġkeb": 1828,
      "ref": 1829,
      "sÃ»": 1830,
      "Ġvaz": 1831,
      "diy": 1832,
      "14": 1833,
      "sek": 1834,
      "ĠSa": 1835,
      "Ã®ni": 1836,
      "dÃ¼ÄŁ": 1837,
      "ĠdÃ¼kkÃ¢n": 1838,
      "ĠhÃ¢ne": 1839,
      "ĠitmiÅŁ": 1840,
      "Ġdol": 1841,
      "Ġmef": 1842,
      "ĠHÃ¢lÃ¢": 1843,
      "ĠbÃ¼yÃ¼k": 1844,
      "masÄ±": 1845,
      "ĠhiÃ§": 1846,
      "Ġkavm": 1847,
      "ĠboÅŁ": 1848,
      "Ġetti": 1849,
      "ayan": 1850,
      "ĠEn": 1851,
      "ĠolmaÄŁ": 1852,
      "esin": 1853,
      "ĠzÃ®rÃ¢": 1854,
      "Ø³": 1855,
      "uv": 1856,
      "ĠNÃ®l": 1857,
      "mas": 1858,
      "Ġ133": 1859,
      "adde": 1860,
      "Ġmih": 1861,
      "ĠkÄ±ble": 1862,
      "ĠkaÃ§": 1863,
      "meyÃ¼p": 1864,
      "Ġbur": 1865,
      "ĠbÃ¼tÃ¼n": 1866,
      "ĠtarÃ®k": 1867,
      "Ġtas": 1868,
      "ĠgÃ¶re": 1869,
      "ĠBaÄŁdÃ¢d": 1870,
      "Ġsad": 1871,
      "ĠKi": 1872,
      "Ä±ÄŁÄ±": 1873,
      "19": 1874,
      "larÄ±nÄ±n": 1875,
      "diÄŁ": 1876,
      "ĠArab": 1877,
      "ĠgÃ»nÃ¢": 1878,
      "ĠkÃ¼l": 1879,
      "ĠMurÃ¢d": 1880,
      "bÃ¢z": 1881,
      "dim": 1882,
      "ĠmeydÃ¢n": 1883,
      "Ġnih": 1884,
      "Ã¢sÄ±l": 1885,
      "Ġhad": 1886,
      "ĠÃĤh": 1887,
      "ĠHÃ¼seyin": 1888,
      "ĠÄ°ÅŁ": 1889,
      "Ùĥ": 1890,
      "ĠMa": 1891,
      "Å«n": 1892,
      "Ġseyr": 1893,
      "ĠeyleyÃ¼p": 1894,
      "iyor": 1895,
      "Ã¼sh": 1896,
      "bÃ®": 1897,
      "meye": 1898,
      "ĠpaÅŁ": 1899,
      "rem": 1900,
      "ĠhÃ¢z": 1901,
      "lÃ»m": 1902,
      "ebÃ®": 1903,
      "ĠKÄ±r": 1904,
      "ĠihsÃ¢n": 1905,
      "ayy": 1906,
      "sÄ±n": 1907,
      "Ä±d": 1908,
      "ĠÃ§al": 1909,
      "ĠsÃ¢hib": 1910,
      "ĠyÃ¼r": 1911,
      "irler": 1912,
      "gÃ®r": 1913,
      "za": 1914,
      "Ġtam": 1915,
      "Ã®fe": 1916,
      "ĠerbÃ¢b": 1917,
      "ĠsatÄ±r": 1918,
      "Ġ+": 1919,
      "Ä±Ã§": 1920,
      "Ġum": 1921,
      "Ġteb": 1922,
      "miÅŁtir": 1923,
      "Ġyerde": 1924,
      "ĠÅŁehri": 1925,
      "ĠtaÅŁra": 1926,
      "Ã»yÃ¢": 1927,
      "ĠÅŁah": 1928,
      "Ã¼mÃ¢y": 1929,
      "rÃ¢k": 1930,
      "est": 1931,
      "ĠMe": 1932,
      "azÄ±": 1933,
      "Ġerba": 1934,
      "´¾": 1935,
      "ĠdeyÃ¼p": 1936,
      "ĠmedfÃ»n": 1937,
      "ĠharÃ¢b": 1938,
      "uÄ±n": 1939,
      "Ġgemi": 1940,
      "iÃ§Ã¼n": 1941,
      "ĠÃĩÃ¼n": 1942,
      "Ã¢tlarÄ±": 1943,
      "ÅŁÃ¢": 1944,
      "ĠbaÅŁka": 1945,
      "zer": 1946,
      "Ġbed": 1947,
      "Ġref": 1948,
      "tÃ¢b": 1949,
      "ĠadÄ±m": 1950,
      "Ġkef": 1951,
      "ĠDev": 1952,
      "erler": 1953,
      "tih": 1954,
      "amÄ±ÅŁ": 1955,
      "Ġolarak": 1956,
      "ĠkÃ¢mil": 1957,
      "Äģb": 1958,
      "sÃ¢r": 1959,
      "ĠhoÅŁ": 1960,
      "Ġevl": 1961,
      "lÃ®m": 1962,
      "ÙİÙĳ": 1963,
      "ĠgÃ¶rÃ¼p": 1964,
      "ĠÅŀem": 1965,
      "ĠYah": 1966,
      "ĠHemÃ¢n": 1967,
      "ĠKa": 1968,
      "Ġac": 1969,
      "Ġyirine": 1970,
      "hÃ¢l": 1971,
      "ess": 1972,
      "dikde": 1973,
      "ĠSelÃ®m": 1974,
      "ĠrÃ»h": 1975,
      "ĠrevÃ¢n": 1976,
      "Ġgice": 1977,
      "ĠEk": 1978,
      "ezÃ¢": 1979,
      "ĠgÃ»ne": 1980,
      "ĠbeyÃ¢z": 1981,
      "Ã¤": 1982,
      "ĠdÃ®n": 1983,
      "yesi": 1984,
      "mÃ¢l": 1985,
      "allÃ¢h": 1986,
      "dÃ¼n": 1987,
      "ĠSene": 1988,
      "Ã¶l": 1989,
      "lÄ±ÄŁÄ±": 1990,
      "ecc": 1991,
      "ĠsarÃ¢y": 1992,
      "ilir": 1993,
      "Ġbizim": 1994,
      "Ã¼v": 1995,
      "iÃ§eri": 1996,
      "Ġtaht": 1997,
      "tÃ®": 1998,
      "Ã¢mÄ±": 1999,
      "ĠkelÃ¢m": 2000,
      "Äģl": 2001,
      "bÃ¢r": 2002,
      "rÃ¢r": 2003,
      "ĠbÃ¼lbÃ¼l": 2004,
      "Ã¢mÃ®": 2005,
      "Ġav": 2006,
      "Ã¼rre": 2007,
      "durur": 2008,
      "ukar": 2009,
      "ĠÄ°slÃ¢mbol": 2010,
      "Â²": 2011,
      "ĠkarÅŁÄ±": 2012,
      "-'": 2013,
      "asÄ±l": 2014,
      "lemÃ¢": 2015,
      "ĠSeb": 2016,
      "Ġmahs": 2017,
      "ĠgÃ¼zel": 2018,
      "Ġbile": 2019,
      "rah": 2020,
      "ĠHatt": 2021,
      "ĠAt": 2022,
      "Ġkulle": 2023,
      "ru": 2024,
      "ĠResÃ»l": 2025,
      "Ġuy": 2026,
      "slim": 2027,
      "Ġolunan": 2028,
      "Äģt": 2029,
      "ĠdoÄŁ": 2030,
      "Ġden": 2031,
      "Ã¢bÄ±": 2032,
      "Ġkral": 2033,
      "ark": 2034,
      "del": 2035,
      "Ġilm": 2036,
      "Ġdevr": 2037,
      "zen": 2038,
      "ize": 2039,
      "Ġna": 2040,
      "Ġï´¿ï´¾": 2041,
      "ĠBil": 2042,
      "ĠAllah": 2043,
      "ĠkÄ±z": 2044,
      "ÄŁr": 2045,
      "ĠkÃ¢": 2046,
      "18": 2047,
      "kÃ¼": 2048,
      "bah": 2049,
      "ĠâĢ¦âĢ¦âĢ¦âĢ¦": 2050,
      "ĠkeÅŁ": 2051,
      "olu": 2052,
      "ĠGel": 2053,
      "Ġmuv": 2054,
      "Ã¼rreÅŁÃ¢d": 2055,
      "ĠkÃ¼y": 2056,
      "Ġolmas": 2057,
      "ĠgÃ»yÃ¢": 2058,
      "ll": 2059,
      "madÄ±": 2060,
      "Ġgece": 2061,
      "ĠÅŁa": 2062,
      "ĠolunmuÅŁdur": 2063,
      "Ã¢rÃ¢": 2064,
      "Ġmahl": 2065,
      "nÃ¼n": 2066,
      "Ġtel": 2067,
      "Ġgur": 2068,
      "ĠhammÃ¢mÄ±": 2069,
      "Ġefendi": 2070,
      "sÄ±z": 2071,
      "ĠEvsÃ¢f": 2072,
      "ĠvaÅŁ": 2073,
      "ete": 2074,
      "adan": 2075,
      "hÃ¢": 2076,
      "Ġgayri": 2077,
      "Ġketh": 2078,
      "Ġayak": 2079,
      "ĠmeÅŁhÃ»r": 2080,
      "Ġtur": 2081,
      "ĠCenÃ¢b": 2082,
      "ĠibtidÃ¢": 2083,
      "Ġsil": 2084,
      "tedir": 2085,
      "ĠTatar": 2086,
      "ĠkÄ±y": 2087,
      "Ġhayr": 2088,
      "ĠAcem": 2089,
      "Ab": 2090,
      "evm": 2091,
      "gil": 2092,
      "Ã¢hÃ®": 2093,
      "tar": 2094,
      "Ġsip": 2095,
      "Ã¼lÃ¼": 2096,
      "Ġra": 2097,
      "lak": 2098,
      "ĠÅŁevk": 2099,
      "Ġric": 2100,
      "ĠÅŀeh": 2101,
      "kender": 2102,
      "ĠhÃ¢sÄ±l": 2103,
      "ecr": 2104,
      "leriyle": 2105,
      "veÅŁ": 2106,
      "ana": 2107,
      "sit": 2108,
      "ĠkaÅŁ": 2109,
      "inÃ¢": 2110,
      "Ã¼nden": 2111,
      "Ã¢tÃ®": 2112,
      "oÄŁlu": 2113,
      "ĠaÅŁaÄŁÄ±": 2114,
      "Ġab": 2115,
      "Ä±ldÄ±": 2116,
      "ĠmÃ¼m": 2117,
      "larÄ±nÄ±": 2118,
      "Ġrak": 2119,
      "ĠaslÃ¢": 2120,
      "ĠverÃ¼p": 2121,
      "Ġmeb": 2122,
      "Ġpek": 2123,
      "ĠhakkÄ±nda": 2124,
      "Ġli": 2125,
      "ezÃ®d": 2126,
      "ĠanuÃ±": 2127,
      "Ġfelek": 2128,
      "ĠlisÃ¢n": 2129,
      "idi": 2130,
      "Ġgey": 2131,
      "ĠdÃ¢m": 2132,
      "Ġmedrese": 2133,
      "ĠÃ¢lem": 2134,
      "ĠÄ°b": 2135,
      "Ã¢sÄ±na": 2136,
      "ĠmÃ¢lik": 2137,
      "ĠmerhÃ»m": 2138,
      "ĠkÄ±s": 2139,
      "Ġboy": 2140,
      "Ġeb": 2141,
      "Ġmahb": 2142,
      "ĠMekke": 2143,
      "ĠÅŁÃ¢m": 2144,
      "lif": 2145,
      "ĠsaÄŁ": 2146,
      "keri": 2147,
      "ĠÃĸmer": 2148,
      "ĠtemÃ¢ÅŁÃ¢": 2149,
      "Ġmas": 2150,
      "Ã¢dur": 2151,
      "ĠÅŁehrin": 2152,
      "ÅŁÃ¢n": 2153,
      "ĠtÃ¼f": 2154,
      "ĠlÃ¢le": 2155,
      "ĠÅŁik": 2156,
      "ĠBÃ¢b": 2157,
      "ullah": 2158,
      "Ġaltun": 2159,
      "ĠUr": 2160,
      "kar": 2161,
      "Ġemr": 2162,
      "ĠkÃ¼Ã§Ã¼k": 2163,
      "ĠGÃ¶z": 2164,
      "abÃ¢": 2165,
      "ĠKad": 2166,
      "Ġá¹£": 2167,
      "Ġvarup": 2168,
      "ĠÃ¼stine": 2169,
      "anÄ±": 2170,
      "ĠyÃ¼k": 2171,
      "Ã»suf": 2172,
      "ĠnÃ¢zÄ±r": 2173,
      "Ġhaber": 2174,
      "ĠTuna": 2175,
      "ĠeylemiÅŁ": 2176,
      "Ã¼vÃ¢r": 2177,
      "arb": 2178,
      "kes": 2179,
      "Ġhazretleri": 2180,
      "maÄŁa": 2181,
      "Ġvec": 2182,
      "sÄ±": 2183,
      "Ġkud": 2184,
      "ĠSey": 2185,
      "Ġhuz": 2186,
      "ĠAli": 2187,
      "ĠTer": 2188,
      "ĠaltÄ±nda": 2189,
      "dÃ¼kde": 2190,
      "Ġmaz": 2191,
      "ĠhÄ±r": 2192,
      "erÃ¢": 2193,
      "ĠBeg": 2194,
      "Ġted": 2195,
      "Ġhud": 2196,
      "Ġnice": 2197,
      "Ê¼": 2198,
      "></": 2199,
      "ĠserÃ¢": 2200,
      "Ġ132": 2201,
      "ĠÅŁimdi": 2202,
      "ĠgayrÄ±": 2203,
      "Ġdeh": 2204,
      "ĠgÃ¶nÃ¼l": 2205,
      "deh": 2206,
      "keÅŁ": 2207,
      "Â³": 2208,
      "ĠbeÄŁ": 2209,
      "ĠYÃ»suf": 2210,
      "ĠÙĬ": 2211,
      "Ġtez": 2212,
      "atÄ±": 2213,
      "Ġfak": 2214,
      "ĠesÃ®r": 2215,
      "ĠÄ°skender": 2216,
      "ĠmÃ¼zeyy": 2217,
      "ĠsÃ¢kin": 2218,
      "ĠdiyÃ¼": 2219,
      "tadÄ±r": 2220,
      "rev": 2221,
      "Ġmerteb": 2222,
      "dÄ±lar": 2223,
      "ĠPer": 2224,
      "ĠhÃ¼km": 2225,
      "Ã»re": 2226,
      "ĠÅŀu": 2227,
      "yle": 2228,
      "Ġdek": 2229,
      "ĠMah": 2230,
      "ĠgÃ¶tÃ¼r": 2231,
      "bÃ®r": 2232,
      "Ġsel": 2233,
      "ĠsÃ¶yle": 2234,
      "este": 2235,
      "ĠAbdÃ¼l": 2236,
      "sÃ®": 2237,
      "Ġmevc": 2238,
      "Ġhandak": 2239,
      "eler": 2240,
      "eni": 2241,
      "Ġister": 2242,
      "ĠsÃ¼n": 2243,
      "Ã¢ta": 2244,
      "ĠkarÃ®b": 2245,
      "ĠÄ¡": 2246,
      "ha": 2247,
      "Ġgelen": 2248,
      "har": 2249,
      "ÙĤ": 2250,
      "Ġale": 2251,
      "sÃ¢": 2252,
      "Ġseng": 2253,
      "immet": 2254,
      "ĠBiz": 2255,
      "Ã®lÃ¼n": 2256,
      "ĠMahm": 2257,
      "ĠvaroÅŁ": 2258,
      "ĠmÃ¼zeyyen": 2259,
      "bek": 2260,
      "abbet": 2261,
      "Ġdery": 2262,
      "ĠcereyÃ¢n": 2263,
      "miz": 2264,
      "ĠVar": 2265,
      "Ġá¸«a": 2266,
      "Ġmenzil": 2267,
      "sine": 2268,
      "ĠVan": 2269,
      "ĠÄ°t": 2270,
      "Ùī": 2271,
      "Ġterk": 2272,
      "ĠedÃ»p": 2273,
      "ĠAllÃ¢h": 2274,
      "ĠMÃ¼slÃ¼man": 2275,
      "ibÃ¢r": 2276,
      "Åŀeyh": 2277,
      "ĠÃ¢hir": 2278,
      "ĠmezbÃ»r": 2279,
      "Ġfev": 2280,
      "emm": 2281,
      "ĠfermÃ¢n": 2282,
      "kÃ¼n": 2283,
      "ĠÃ§Ä±kup": 2284,
      "ĠFer": 2285,
      "Ġkimes": 2286,
      "lerimiz": 2287,
      "ĠÃ§er": 2288,
      "ĠYan": 2289,
      "kil": 2290,
      "irin": 2291,
      "elÃ¢": 2292,
      "Ġharek": 2293,
      "ĠbÃ¢zÃ¢r": 2294,
      "ale": 2295,
      "ĠolÄ±n": 2296,
      "etle": 2297,
      "ĠsÃ»r": 2298,
      "Ġsefer": 2299,
      "adÃ¢": 2300,
      "ĠmÃ¼k": 2301,
      "ĠkitÃ¢b": 2302,
      "Ġner": 2303,
      "ĠeyÃ¢let": 2304,
      "ĠÅŁekl": 2305,
      "Ġhus": 2306,
      "evher": 2307,
      "Ġoldukda": 2308,
      "ĠhalkÄ±": 2309,
      "ĠzÃ¢hir": 2310,
      "20": 2311,
      "nÄ±": 2312,
      "rab": 2313,
      "Ġbahr": 2314,
      "arz": 2315,
      "Ġfen": 2316,
      "Ġsanc": 2317,
      "Ġasr": 2318,
      "ĠÃ¼stÃ¢d": 2319,
      "eyyid": 2320,
      "dar": 2321,
      "Ä±la": 2322,
      "ĠÅŁark": 2323,
      "meli": 2324,
      "Ġibret": 2325,
      "elik": 2326,
      "umdan": 2327,
      "ĠnÃ¼sh": 2328,
      "ĠEÅŁ": 2329,
      "ĠÄ°slÃ¢miyye": 2330,
      "ĠdÃ¶st": 2331,
      "hÃ¢r": 2332,
      "Ġdik": 2333,
      "ĠyeniÃ§eri": 2334,
      "ĠÃ¢yet": 2335,
      "Ġkend": 2336,
      "ĠdÃ¢hil": 2337,
      "Ġvas": 2338,
      "Ġ43": 2339,
      "ĠmakÃ¢m": 2340,
      "ÅŁÄ±k": 2341,
      "aceb": 2342,
      "ĠmÃ¼f": 2343,
      "ĠferyÃ¢d": 2344,
      "uyu": 2345,
      "yor": 2346,
      "ĠMef": 2347,
      "Ġbek": 2348,
      "ĠhÃ¢nÄ±": 2349,
      "ĠeÄŁer": 2350,
      "alÄ±k": 2351,
      "illÃ¢h": 2352,
      "Ã¢rek": 2353,
      "ĠgirÃ¼p": 2354,
      "ĠRis": 2355,
      "ĠmetÃ®n": 2356,
      "zÃ¢": 2357,
      "'ll": 2358,
      "ĠvÃ¢ki": 2359,
      "Ġkol": 2360,
      "Ã¢bÃ®": 2361,
      "ĠkenÃ¢rÄ±nda": 2362,
      "ĠbÃ¢lÃ¢": 2363,
      "ĠMustafÃ¢": 2364,
      "ĠgÃ¼m": 2365,
      "lerle": 2366,
      "ĠKem": 2367,
      "Ġdemir": 2368,
      "ĠhÃ¼c": 2369,
      "Ġbudur": 2370,
      "ĠTar": 2371,
      "edd": 2372,
      "ĠaltmÄ±ÅŁ": 2373,
      "ĠselÃ¢m": 2374,
      "Ġbezm": 2375,
      "ĠderÃ»n": 2376,
      "Ġtec": 2377,
      "od": 2378,
      "ĠrÃ»z": 2379,
      "han": 2380,
      "nak": 2381,
      "ĠÃ¢sÃ¢r": 2382,
      "ĠmihrÃ¢b": 2383,
      "Ã¼me": 2384,
      "Ġnes": 2385,
      "om": 2386,
      "ĠboÄŁ": 2387,
      "Ġhic": 2388,
      "unun": 2389,
      "ĠHattÃ¢": 2390,
      "ĠÄ°mÃ¢m": 2391,
      "ist": 2392,
      "ĠMan": 2393,
      "ĠÃ§ar": 2394,
      "Ġgelir": 2395,
      "ĠkemÃ¢l": 2396,
      "Ã¶r": 2397,
      "Ã¢nÄ±n": 2398,
      "emr": 2399,
      "Ġgeldi": 2400,
      "Ġbirbir": 2401,
      "Ġbunlar": 2402,
      "Ġmeclis": 2403,
      "ĠmÃ¼slÃ¼man": 2404,
      "ĠcÃ¢nÃ¢": 2405,
      "ĠØ£": 2406,
      "ĠdÃ¼nyÃ¢": 2407,
      "cu": 2408,
      "dÃ¢m": 2409,
      "Ġhel": 2410,
      "ĠetmiÅŁdir": 2411,
      "sal": 2412,
      "ĠÄ±": 2413,
      "ĠkÃ®se": 2414,
      "ĠHan": 2415,
      "ĠmurÃ¢d": 2416,
      "ÅŁÃ¢k": 2417,
      "âģ´": 2418,
      "ag": 2419,
      "Ġbunda": 2420,
      "ĠtÃ¼feng": 2421,
      "ĠyaÄŁ": 2422,
      "ĠtÃ¢ze": 2423,
      "kir": 2424,
      "ĠÃ¢r": 2425,
      "ĠÅŁehÃ®d": 2426,
      "ĠoÄŁlu": 2427,
      "ĠkÃ»h": 2428,
      "ĠÅŁal": 2429,
      "ĠOsman": 2430,
      "ĠmÃ¼lk": 2431,
      "ĠzemÃ®n": 2432,
      "Ġhaf": 2433,
      "Ġdaha": 2434,
      "Ä±yÃ¢n": 2435,
      "Ġhey": 2436,
      "ĠBul": 2437,
      "Ġlev": 2438,
      "Ġyek": 2439,
      "Ã¢hid": 2440,
      "ĠziyÃ¢de": 2441,
      "ĠmÃ¢b": 2442,
      "Ġdefter": 2443,
      "Ã¢sÄ±nda": 2444,
      "Ġuz": 2445,
      "selÃ¢m": 2446,
      "siz": 2447,
      "ĠÅŁiir": 2448,
      "zet": 2449,
      "tik": 2450,
      "ĠZÃ¼lf": 2451,
      "ĠÃ¢sit": 2452,
      "dev": 2453,
      "Ġkimse": 2454,
      "nÃ¢me": 2455,
      "Ġgan": 2456,
      "ĠmedfÃ»ndur": 2457,
      "ĠÄ°z": 2458,
      "Ġverir": 2459,
      "ĠhuzÃ»r": 2460,
      "sinde": 2461,
      "Ġmik": 2462,
      "ender": 2463,
      "ĠnakÅŁ": 2464,
      "Ġbas": 2465,
      "ĠRus": 2466,
      "kif": 2467,
      "Ġtef": 2468,
      "Ġ50": 2469,
      "uyor": 2470,
      "ØŃ": 2471,
      "ĠÄ°l": 2472,
      "Ġseni": 2473,
      "Ġtarih": 2474,
      "Ã¢vet": 2475,
      "ĠcÃ¢miÊ»": 2476,
      "Ġbize": 2477,
      "Ġkimesne": 2478,
      "aman": 2479,
      "ĠFak": 2480,
      "Ġlat": 2481,
      "ĠÄ°ngil": 2482,
      "Ġaskeri": 2483,
      "ĠbÃ¼": 2484,
      "ĠneÅŁ": 2485,
      "Ġmusan": 2486,
      "ĠalÄ±n": 2487,
      "kaÃ§": 2488,
      "ĠhaÅŁ": 2489,
      "ĠHa": 2490,
      "Ã¼mÃ¼z": 2491,
      "Ġdidi": 2492,
      "mÃ¼": 2493,
      "Ġdiz": 2494,
      "ĠAs": 2495,
      "ĠdiÄŁer": 2496,
      "Ġsebeb": 2497,
      "ĠEf": 2498,
      "ĠmÃ®r": 2499,
      "Ġebr": 2500,
      "Ä±yor": 2501,
      "Ø£": 2502,
      "Ä±lan": 2503,
      "Ġ44": 2504,
      "ĠgeÃ§Ã¼p": 2505,
      "Ġyit": 2506,
      "ĠYa": 2507,
      "sil": 2508,
      "ĠsiyÃ¢h": 2509,
      "tÄ±k": 2510,
      "uá¸«": 2511,
      "Ġotuz": 2512,
      "Ġcel": 2513,
      "ost": 2514,
      "ĠmÃ¼te": 2515,
      "Ġolundu": 2516,
      "mÃ¼ÅŁ": 2517,
      "Ġkalk": 2518,
      "aht": 2519,
      "ĠYÃ¼z": 2520,
      "ĠbÃ¢b": 2521,
      "Ã»de": 2522,
      "Äģm": 2523,
      "Ġmerk": 2524,
      "rÃ¢h": 2525,
      "ĠÃ¢": 2526,
      "ĠtarafÄ±nda": 2527,
      ").": 2528,
      "Ġá¹Ń": 2529,
      "ĠhÃ¢": 2530,
      "akÃ¢": 2531,
      "ĠNec": 2532,
      "baÅŁÄ±": 2533,
      "ÅŁer": 2534,
      "Ã¢hat": 2535,
      "ĠnÃ»r": 2536,
      "ĠEmr": 2537,
      "Ġkor": 2538,
      "Ġtokuz": 2539,
      "Ġcennet": 2540,
      "rÃ¼": 2541,
      "ÛĮ": 2542,
      "ĠÅŁÃ¢d": 2543,
      "ĠHil": 2544,
      "Ġkara": 2545,
      "mem": 2546,
      "ĠmÃ¼slim": 2547,
      "Ġkefere": 2548,
      "Ø´": 2549,
      "Ġcil": 2550,
      "Ġ52": 2551,
      "Ġkuv": 2552,
      "ĠBer": 2553,
      "ĠbugÃ¼n": 2554,
      "Ġfi": 2555,
      "ĠÃİ": 2556,
      "ĠvarÄ±nca": 2557,
      "ĠgarÃ®b": 2558,
      "maya": 2559,
      "ĠkÃ¶y": 2560,
      "Ã¢ndÄ±r": 2561,
      "ĠBel": 2562,
      "Ã¢bi": 2563,
      "lÃ¼n": 2564,
      "Ġres": 2565,
      "ĠcemÃ¢l": 2566,
      "ĠKap": 2567,
      "gÃ¢r": 2568,
      "ĠgÃ¼": 2569,
      "yÃ¢r": 2570,
      "ÅŁa": 2571,
      "aka": 2572,
      "ĠinÅŁÃ¢": 2573,
      "afa": 2574,
      "Ġmillet": 2575,
      "ĠÃ¶rt": 2576,
      "Seb": 2577,
      "Ġiden": 2578,
      "ĠSeyyid": 2579,
      "ĠDem": 2580,
      "nÃ¼mÃ¢": 2581,
      "duÄŁu": 2582,
      "mÃ»r": 2583,
      "Ġïģ²": 2584,
      "Ã¢lih": 2585,
      "ĠzÃ¢r": 2586,
      "ĠRev": 2587,
      "Ġaleyh": 2588,
      "ĠÅŀÃ¢m": 2589,
      "Ġvech": 2590,
      "Ġkurbunda": 2591,
      "ĠhÃ¼n": 2592,
      "Ã¢tÄ±n": 2593,
      "ife": 2594,
      "Ã¢dan": 2595,
      "ĠbÄ±r": 2596,
      "ĠAz": 2597,
      "Ã¢yih": 2598,
      "ĠNiÃ§e": 2599,
      "dÄ±ÄŁÄ±": 2600,
      "ĠBunlar": 2601,
      "Ġvakt": 2602,
      "ĠbÃ¢d": 2603,
      "Ġsak": 2604,
      "Ġdurur": 2605,
      "âģ¶": 2606,
      "ĠkuÅŁ": 2607,
      "Ġlim": 2608,
      "Ġzeb": 2609,
      "ĠetrÃ¢f": 2610,
      "Ġmeks": 2611,
      "mayup": 2612,
      "ĠBÃ¢y": 2613,
      "ĠKud": 2614,
      "ĠbilÃ¼r": 2615,
      "Å«Ã±": 2616,
      "Å¾": 2617,
      "Ã¢kir": 2618,
      "ĠmÃ¢beyn": 2619,
      "rÃ»": 2620,
      "ĠÃ¢n": 2621,
      "ĠEdir": 2622,
      "Ã®ler": 2623,
      "ĠniÅŁÃ¢n": 2624,
      "Ġ55": 2625,
      "25": 2626,
      "abr": 2627,
      "ĠÃ¢bÃ¢d": 2628,
      "Ġort": 2629,
      "Ġfet": 2630,
      "ĠbaÅŁl": 2631,
      "Ġharem": 2632,
      "had": 2633,
      "Ġgez": 2634,
      "Ġsiz": 2635,
      "Ġanl": 2636,
      "ciyÃ¢n": 2637,
      "ĠÅŁÃ®r": 2638,
      "ĠgÃ¶Ã±": 2639,
      "Ġ47": 2640,
      "ĠÃ¶z": 2641,
      "ĠHab": 2642,
      "sk": 2643,
      "niÅŁ": 2644,
      "Ġdin": 2645,
      "ĠDede": 2646,
      "Ġlez": 2647,
      "ĠMedres": 2648,
      "á¸Ń": 2649,
      "maktadÄ±r": 2650,
      "Ä¡": 2651,
      "ĠgelÃ¼r": 2652,
      "ĠkiÅŁi": 2653,
      "ĠmahbÃ»b": 2654,
      "aÅŁk": 2655,
      "Ġkasab": 2656,
      "rif": 2657,
      "yÃ®n": 2658,
      "Ùģ": 2659,
      "Ġod": 2660,
      "ĠÅŀi": 2661,
      "ĠOn": 2662,
      "Ġbeyt": 2663,
      "ĠdÃ¢rÃ¼": 2664,
      "cÃ¢c": 2665,
      "Ä«re": 2666,
      "ĠMar": 2667,
      "aza": 2668,
      "ĠevlÃ¢d": 2669,
      "Ã¢yÃ¢": 2670,
      "ĠGaz": 2671,
      "derr": 2672,
      "ilm": 2673,
      "Ġ53": 2674,
      "Ġ56": 2675,
      "nde": 2676,
      "Ġfaz": 2677,
      "Ġmusanna": 2678,
      "ezÃ¢r": 2679,
      "ĠSar": 2680,
      "Ġediyor": 2681,
      "van": 2682,
      "ĠSeh": 2683,
      "evv": 2684,
      "yon": 2685,
      "ĠmaÄŁ": 2686,
      "ĠØ¨": 2687,
      "ĠCÃ¢mi": 2688,
      "lÃ¢m": 2689,
      "Ä±ndaki": 2690,
      "Ã¢lib": 2691,
      "Ġmisk": 2692,
      "ĠBudin": 2693,
      "ĠhÃ¼kÃ¼m": 2694,
      "Ġhum": 2695,
      "ĠDÃ®": 2696,
      "mektedir": 2697,
      "23": 2698,
      "ĠYine": 2699,
      "11": 2700,
      "kÄ±y": 2701,
      "lÄ±ÄŁ": 2702,
      "Ġseksen": 2703,
      "Ġkoyup": 2704,
      "24": 2705,
      "idir": 2706,
      "Ġikt": 2707,
      "mad": 2708,
      "elim": 2709,
      "ĠkarÃ¢r": 2710,
      "vÃ¢ne": 2711,
      "ĠDÃ¶": 2712,
      "ĠÃ§okdur": 2713,
      "fa": 2714,
      "ĠlatÃ®f": 2715,
      "Ã¢bet": 2716,
      "ĠKay": 2717,
      "avuÅŁ": 2718,
      "Ġanlar": 2719,
      "gam": 2720,
      "ĠKer": 2721,
      "Ġreh": 2722,
      "ĠKÄ±z": 2723,
      "meyen": 2724,
      "edÃ¢": 2725,
      "ĠÃĤdem": 2726,
      "ĠLÃ¢kin": 2727,
      "Ġonun": 2728,
      "Ã¼nÃ¼n": 2729,
      "Ġ45": 2730,
      "ĠbÃ¢ÄŁÃ§": 2731,
      "cÃ¢r": 2732,
      "Ġotur": 2733,
      "ĠbirkaÃ§": 2734,
      "eder": 2735,
      "Al": 2736,
      "alat": 2737,
      "Ġolursa": 2738,
      "Ġkethud": 2739,
      "pen": 2740,
      "Ä±rlar": 2741,
      "ĠTa": 2742,
      "ĠTÃ¢": 2743,
      "ĠrÃ¼z": 2744,
      "Ġoldular": 2745,
      "Ã®ri": 2746,
      "afer": 2747,
      "deb": 2748,
      "Ġeyy": 2749,
      "ĠÃ¼zerine": 2750,
      "Ġdib": 2751,
      "ĠimÃ¢r": 2752,
      "Ġmertebe": 2753,
      "teh": 2754,
      "Ġismi": 2755,
      "graf": 2756,
      "ĠÃ§emen": 2757,
      "Ġpar": 2758,
      "Ġ54": 2759,
      "Ġederken": 2760,
      "ĠBÃ¢yezÃ®d": 2761,
      "enÃ¼z": 2762,
      "Ã¢fÃ®": 2763,
      "ÅŁe": 2764,
      "Ġnis": 2765,
      "ĠMem": 2766,
      "ĠSÃ¼r": 2767,
      "Ġ100": 2768,
      "Ã¢hib": 2769,
      "Ġfukar": 2770,
      "ĠhÃ¼kÃ»m": 2771,
      "ĠTek": 2772,
      "Ġ46": 2773,
      "Ġ79": 2774,
      "ĠhÃ¢m": 2775,
      "Ġhikmet": 2776,
      "Ġgul": 2777,
      "azzam": 2778,
      "ĠdÃ¢ÄŁ": 2779,
      "ĠGÃ¢zÃ®": 2780,
      "luk": 2781,
      "Ġmat": 2782,
      "adr": 2783,
      "rik": 2784,
      "sam": 2785,
      "ĠBek": 2786,
      "iyÃ¢t": 2787,
      "ĠÙģ": 2788,
      "ĠGÃ¶n": 2789,
      "ĠcezÃ®re": 2790,
      "ot": 2791,
      "tÃ¢": 2792,
      "abÃ¢h": 2793,
      "miÅŁdir": 2794,
      "Ġ73": 2795,
      "ĠdÃ®de": 2796,
      "Ġhep": 2797,
      "kap": 2798,
      "Ġzar": 2799,
      "ĠFir": 2800,
      "Der": 2801,
      "Ġhimmet": 2802,
      "ĠuÄŁr": 2803,
      "Ġcebel": 2804,
      "ĠricÃ¢": 2805,
      "Ġpen": 2806,
      "Ã®ÄŁ": 2807,
      "Ġdid": 2808,
      "Ġ48": 2809,
      "ĠsÃ¢hibi": 2810,
      "Ġtil": 2811,
      "ĠBi": 2812,
      "Ġana": 2813,
      "Ġ104": 2814,
      "aÄŁÄ±le": 2815,
      "pÃ¢": 2816,
      "ĠtÃ®r": 2817,
      "ĠAv": 2818,
      "Ġ97": 2819,
      "Ġrahmet": 2820,
      "ĠÅŁÃ¼r": 2821,
      "Ġdemek": 2822,
      "Ġzuh": 2823,
      "Ä«n": 2824,
      "Ġmermer": 2825,
      "nÃ»n": 2826,
      "iyeti": 2827,
      "ĠFerh": 2828,
      "ĠhalÃ¢s": 2829,
      "ĠÃ¶nÃ¼nde": 2830,
      "Mev": 2831,
      "gar": 2832,
      "kal": 2833,
      "Ġhed": 2834,
      "dÃ¼g": 2835,
      "ĠdaÄŁÄ±": 2836,
      "ĠTÃ¢rÃ®h": 2837,
      "Ê»l": 2838,
      "Ã¢nlar": 2839,
      "asÄ±ndan": 2840,
      "ĠNes": 2841,
      "ĠkuruÅŁ": 2842,
      "lesi": 2843,
      "ĠrÃ»y": 2844,
      "Ġ63": 2845,
      "ĠmÃ¢n": 2846,
      "29": 2847,
      "Ġni": 2848,
      "iyÃ¢z": 2849,
      "Ġ68": 2850,
      "ĠhayÃ¢l": 2851,
      "emÃ®n": 2852,
      "aki": 2853,
      "Ġ65": 2854,
      "ĠarasÄ±nda": 2855,
      "ĠcenÃ»b": 2856,
      "reng": 2857,
      "ĠBe": 2858,
      "asÄ±nÄ±n": 2859,
      "Ġism": 2860,
      "eger": 2861,
      "Ġordu": 2862,
      "ÅŁum": 2863,
      "ĠtÃ¢r": 2864,
      "Ġreng": 2865,
      "Ġ60": 2866,
      "Ġ76": 2867,
      "ĠhÃ¼r": 2868,
      "Ġkatl": 2869,
      "Ġolurlar": 2870,
      "ĠgÃ¶ren": 2871,
      "dÃ¼Ã±": 2872,
      "ĠHindi": 2873,
      "ĠDevlet": 2874,
      "gan": 2875,
      "ruh": 2876,
      "ĠberÃ¼": 2877,
      "ĠBak": 2878,
      "Ġ67": 2879,
      "27": 2880,
      "fi": 2881,
      "ĠMak": 2882,
      "ĠHÃ¢k": 2883,
      "Ã»nu": 2884,
      "Ã¢bil": 2885,
      "larÄ±mÄ±z": 2886,
      "avv": 2887,
      "Ġhuc": 2888,
      "ĠzÃ®": 2889,
      "ĠÃ§alÄ±ÅŁ": 2890,
      "hÃ¢sÄ±l": 2891,
      "Ġ134": 2892,
      "Ġ58": 2893,
      "Ġitmez": 2894,
      "alarÄ±n": 2895,
      "ĠØ¹": 2896,
      "ĠDÃ¼ÅŁ": 2897,
      "ĠkalmÄ±ÅŁ": 2898,
      "Ã®lÃ¼rreÅŁÃ¢d": 2899,
      "timÃ¢": 2900,
      "ĠgÃ¼r": 2901,
      "ĠÃĩer": 2902,
      "ĠRe": 2903,
      "ĠRab": 2904,
      "Ġ94": 2905,
      "ĠRisÃ¢let": 2906,
      "Ã¢tib": 2907,
      "Ġ59": 2908,
      "Ġzir": 2909,
      "Ä±lÄ±": 2910,
      "ĠlÃ¢zÄ±m": 2911,
      "ĠyanÄ±nda": 2912,
      "Ġá¸¥o": 2913,
      "Ġye": 2914,
      "ĠSinÃ¢n": 2915,
      "ĠÄ°h": 2916,
      "Ġ49": 2917,
      "ĠolduÄŁundan": 2918,
      "ĠÃ¶rtÃ¼lÃ¼": 2919,
      "Ġnas": 2920,
      "ĠMac": 2921,
      "ĠÄ°Ã§": 2922,
      "Ã¢sÄ±n": 2923,
      "ĠCel": 2924,
      "ĠhÃ¢zÄ±r": 2925,
      "Ġbeh": 2926,
      "esinden": 2927,
      "ĠkaldÄ±": 2928,
      "ĠmefÃ¢": 2929,
      "ĠlÃ¢": 2930,
      "Ã¢ver": 2931,
      "bu": 2932,
      "iyesi": 2933,
      "ĠgÃ¶rÃ¼n": 2934,
      "Ġ103": 2935,
      "Ġbildir": 2936,
      "iyyesi": 2937,
      "ĠbelÃ¢": 2938,
      "Ġnehri": 2939,
      "iniz": 2940,
      "Ġhac": 2941,
      "Ġ64": 2942,
      "Ġgarb": 2943,
      "Ã®mÃ¢r": 2944,
      "ĠÃĤkif": 2945,
      "Ġmahall": 2946,
      "Ġtekye": 2947,
      "ĠKaz": 2948,
      "ĠSal": 2949,
      "Ġbit": 2950,
      "ise": 2951,
      "Ġsul": 2952,
      "ĠcÃ¢nÃ¢n": 2953,
      "Ä«r": 2954,
      "ĠsarÃ¢yÄ±": 2955,
      "ahh": 2956,
      "Ġyayl": 2957,
      "26": 2958,
      "ĠÅŁak": 2959,
      "ĠÃ¢hum": 2960,
      "ĠolmÄ±ÅŁdur": 2961,
      "ĠanÄ±n": 2962,
      "á¹¯": 2963,
      "ÄŁimiz": 2964,
      "Ã¢rif": 2965,
      "Ã¢kÄ±b": 2966,
      "Ã¢tih": 2967,
      "iÅŁer": 2968,
      "ĠTab": 2969,
      "ĠbaÅŁÄ±na": 2970,
      "ĠNazÄ«re": 2971,
      "Ġitmek": 2972,
      "ĠserdÃ¢r": 2973,
      "ĠgÃ¶zÃ¼m": 2974,
      "Ġsav": 2975,
      "ĠMelek": 2976,
      "Ã¢sÃ®": 2977,
      "Ã¢sÄ±m": 2978,
      "Ġbulunan": 2979,
      "cÃ¢n": 2980,
      "yet": 2981,
      "ĠtÃ¢c": 2982,
      "Ġinsan": 2983,
      "ĠimÃ¢ret": 2984,
      "Ġkez": 2985,
      "ehÃ¢ne": 2986,
      "Ġmemlek": 2987,
      "ĠhÃ¢ric": 2988,
      "izÃ¢m": 2989,
      "Ve": 2990,
      "heb": 2991,
      "tÃ¼": 2992,
      "Ðµ": 2993,
      "ĠhenÃ¼z": 2994,
      "ĠbeÅŁer": 2995,
      "yan": 2996,
      "ĠSul": 2997,
      "Ġzevk": 2998,
      "ĠmÃ¼sel": 2999,
      "ĠsÃ¶y": 3000,
      "ĠKas": 3001,
      "Ġ77": 3002,
      "Ġ78": 3003,
      "ĠmÃ¼nh": 3004,
      "ĠÅŁÃ¼k": 3005,
      "Ġzev": 3006,
      "ĠfÃ®": 3007,
      "utf": 3008,
      "Ev": 3009,
      "Ġiy": 3010,
      "meÄŁe": 3011,
      "Ã¢fi": 3012,
      "ĠEbÃ»": 3013,
      "ĠMahmÃ»d": 3014,
      "hay": 3015,
      "ĠLeb": 3016,
      "Ġkavmi": 3017,
      "suz": 3018,
      "Ġ0": 3019,
      "ĠEh": 3020,
      "ĠGir": 3021,
      "?\"": 3022,
      "maÄŁ": 3023,
      "zÃ®": 3024,
      "alan": 3025,
      "ĠsenÃ¼n": 3026,
      "ĠÃ¢har": 3027,
      "Ġkapudan": 3028,
      "ĠHÃ¢l": 3029,
      "Ġ80": 3030,
      "ĠGerÃ§i": 3031,
      "ĠÃ¼mmet": 3032,
      "ĠbÃ¢": 3033,
      "eyl": 3034,
      "Ġbend": 3035,
      "ĠFran": 3036,
      "Ġ66": 3037,
      "ĠaÄŁasÄ±": 3038,
      "ĠulemÃ¢": 3039,
      "ĠgÃ¼ÅŁ": 3040,
      "Ã¢hire": 3041,
      "amak": 3042,
      "bend": 3043,
      "ĠyÃ¢d": 3044,
      "Ã¢dÃ¢r": 3045,
      "efe": 3046,
      "Ġeger": 3047,
      "ĠMÃ¼n": 3048,
      "Ġ75": 3049,
      "Ġmekteb": 3050,
      "Ã§er": 3051,
      "ĠetmeÄŁe": 3052,
      "Ġkimi": 3053,
      "Ġyere": 3054,
      "sÃ®r": 3055,
      "ĠHat": 3056,
      "Ġ105": 3057,
      "ĠkabÃ»l": 3058,
      "Ġkalem": 3059,
      "Ġkasaba": 3060,
      "Ġ74": 3061,
      "ĠmÃ¼bÃ¢rek": 3062,
      "Ã®dir": 3063,
      "mesÃ¼n": 3064,
      "Ã¶mr": 3065,
      "ĠÃ®m": 3066,
      "arlar": 3067,
      "ĠMuk": 3068,
      "ĠmuhÃ¢s": 3069,
      "Ã»c": 3070,
      "etin": 3071,
      "ĠzÃ®b": 3072,
      "larÄ±yla": 3073,
      "ĠolmaÄŁÄ±le": 3074,
      "Ġtahs": 3075,
      "ĠhÃ¢tÄ±r": 3076,
      "ĠÃ¢bÃ¢dÃ¢n": 3077,
      "bahr": 3078,
      "Ã®me": 3079,
      "Ġdel": 3080,
      "Ġbizi": 3081,
      "Ġkuvvet": 3082,
      "ĠhuccÃ¢c": 3083,
      "kÃ¢": 3084,
      "Ġyat": 3085,
      "Ġyevm": 3086,
      "addem": 3087,
      "ĠCih": 3088,
      "ubh": 3089,
      "Ġhiz": 3090,
      "aff": 3091,
      "!\"": 3092,
      "Ġbulup": 3093,
      "Ã¢sÄ±dÄ±r": 3094,
      "lÃ¢nÃ¢": 3095,
      "Ġyiter": 3096,
      "ĠÃ¢v": 3097,
      "dular": 3098,
      "Ġá¸ª": 3099,
      "âģµ": 3100,
      "ĠEmÃ®r": 3101,
      "ade": 3102,
      "Ä±lar": 3103,
      "Ġcin": 3104,
      "Ġnakl": 3105,
      "ĠnigÃ¢r": 3106,
      "ĠvÃ¼cÃ»d": 3107,
      "rih": 3108,
      "ĠfÄ±r": 3109,
      "ĠdÃ¶rt": 3110,
      "ĠEyle": 3111,
      "Ġkemer": 3112,
      "asÄ±nÄ±": 3113,
      "ĠPÃ¢diÅŁÃ¢h": 3114,
      "ĠÅŁeref": 3115,
      "Ġintik": 3116,
      "ĠEÅŁref": 3117,
      "28": 3118,
      "Ġva": 3119,
      "Ġ57": 3120,
      "ĠtamÃ¢m": 3121,
      "urlar": 3122,
      "ĠBahr": 3123,
      "deniz": 3124,
      "Å«r": 3125,
      "Ġfevt": 3126,
      "fe": 3127,
      "Ã¢lim": 3128,
      "ĠÄ°ki": 3129,
      "ĠkÃ¢nÃ»n": 3130,
      "Ġoy": 3131,
      "Ġkapus": 3132,
      "ĠahvÃ¢l": 3133,
      "ĠgÃ¢r": 3134,
      "esini": 3135,
      "Ġdeve": 3136,
      "Ġhecr": 3137,
      "ĠnÃ¢h": 3138,
      "Ã¢dÄ±": 3139,
      "isÃ¢r": 3140,
      "Ġolmad": 3141,
      "ĠÄŀ": 3142,
      "ĠkazÃ¢": 3143,
      "mir": 3144,
      "tak": 3145,
      "ĠBaba": 3146,
      "vÃ®ÅŁ": 3147,
      "eÅŁt": 3148,
      "ĠgÃ¼nde": 3149,
      "Bu": 3150,
      "ĠKÃ¶": 3151,
      "Ġisti": 3152,
      "ĠsÄ±ÄŁ": 3153,
      "ĠnÃ»ÅŁ": 3154,
      "ĠHacÄ±": 3155,
      "Ġsancak": 3156,
      "Ã¢ris": 3157,
      "indeki": 3158,
      "Ġkalup": 3159,
      "Ġelinden": 3160,
      "Ġ107": 3161,
      "kÃ¼l": 3162,
      "ÅŁir": 3163,
      "Ġboz": 3164,
      "ĠsafÃ¢": 3165,
      "ayÄ±n": 3166,
      "Ġfikr": 3167,
      "Ġcevr": 3168,
      "Ã¢sÄ±ndan": 3169,
      "ĠDÃ¢r": 3170,
      "ĠÅŁarÃ¢b": 3171,
      "ĠeyyÃ¢m": 3172,
      "Ġkah": 3173,
      "eyle": 3174,
      "ĠvirÃ¼r": 3175,
      "ĠâĢ¦âĢ¦âĢ¦âĢ¦âĢ¦": 3176,
      "ĠMihr": 3177,
      "Ġ70": 3178,
      "ĠesnÃ¢fÄ±": 3179,
      "ĠKÃ¢n": 3180,
      "ĠÅŀehr": 3181,
      "Ã»rdur": 3182,
      "iddet": 3183,
      "onÃ§e": 3184,
      "Ġistik": 3185,
      "ĠesbÃ¢b": 3186,
      "Ġhareket": 3187,
      "ĠMenzil": 3188,
      "ĠMacar": 3189,
      "ĠNebÃ®": 3190,
      "ĠOr": 3191,
      "Ġbende": 3192,
      "Ġedecek": 3193,
      "ĠÃ¶ldÃ¼r": 3194,
      "ĠasrÄ±nda": 3195,
      "ÅŁÄ±": 3196,
      "Ä±lÄ±r": 3197,
      "bÃ¼": 3198,
      "ĠbÃ¢l": 3199,
      "Ġoldum": 3200,
      "ĠMil": 3201,
      "Ã»sÃ¢": 3202,
      "ĠkÃ¢rgÃ®r": 3203,
      "nu": 3204,
      "rÃ®z": 3205,
      "Ã®si": 3206,
      "Ġ106": 3207,
      "Ġ99": 3208,
      "ĠdoÄŁru": 3209,
      "Ġmahabbet": 3210,
      "Ä±yye": 3211,
      "ĠolduÄŁunu": 3212,
      "Ġurup": 3213,
      "ĠYaz": 3214,
      "cid": 3215,
      "ga": 3216,
      "ĠMus": 3217,
      "Ġitse": 3218,
      "Ġ159": 3219,
      "ĠdÄ±r": 3220,
      "ĠBÃ®": 3221,
      "ĠSÄ±r": 3222,
      "ĠTev": 3223,
      "bette": 3224,
      "Ġdefn": 3225,
      "Men": 3226,
      "ĠKon": 3227,
      "Ġfel": 3228,
      "Ġkaryesi": 3229,
      "Ġ98": 3230,
      "ĠMedÃ®ne": 3231,
      "ĠhÃ¼mÃ¢y": 3232,
      "ĠHÃ¢t": 3233,
      "izÃ¢r": 3234,
      "ĠhayvÃ¢n": 3235,
      "ĠayaÄŁ": 3236,
      "ĠNak": 3237,
      "eddÃ®n": 3238,
      "ĠbÃ¢de": 3239,
      "umdur": 3240,
      "ĠÃ§Ã¢rsÃ»": 3241,
      "ĠemÃ¢n": 3242,
      "ĠdÃ¼": 3243,
      "ĠÃ§ev": 3244,
      "ĠcemÃ¢": 3245,
      "ĠmÃ¼ÅŁg": 3246,
      "ĠtilÃ¢vet": 3247,
      "sÃ¼z": 3248,
      "zÃ»n": 3249,
      "Ġ69": 3250,
      "ĠmaÊ»": 3251,
      "ostÃ¢n": 3252,
      "Ġtul": 3253,
      "ĠÅŀim": 3254,
      "ĠAncak": 3255,
      "levÃ®": 3256,
      "Ã¢tÃ¼n": 3257,
      "Ġzikr": 3258,
      "ĠmÃ¼j": 3259,
      "Ġilt": 3260,
      "?)": 3261,
      "fÃ¢": 3262,
      "addi": 3263,
      "Ä±ÅŁkÄ±": 3264,
      "ER": 3265,
      "ati": 3266,
      "Ġ95": 3267,
      "âģ¸": 3268,
      "Ġedeb": 3269,
      "Ã®ze": 3270,
      "ĠmikdÃ¢rÄ±": 3271,
      "Ġfit": 3272,
      "ift": 3273,
      "ĠneferÃ¢t": 3274,
      "Ġolmasa": 3275,
      "bÃ¼r": 3276,
      "ĠbaÅŁÄ±nda": 3277,
      "Ġberi": 3278,
      "ĠSayÄ±": 3279,
      "uÅŁÅŁÃ¢k": 3280,
      "kem": 3281,
      "Ġtan": 3282,
      "ĠEÄŁer": 3283,
      "ĠFerhÃ¢d": 3284,
      "35": 3285,
      "Ġkum": 3286,
      "abt": 3287,
      "lÃ¢l": 3288,
      "indir": 3289,
      "iyo": 3290,
      "ĠGÃ¼n": 3291,
      "ĠLa": 3292,
      "vÃ®": 3293,
      "ĠÃ¢z": 3294,
      "Ġzeyn": 3295,
      "ĠdÃ¼ny": 3296,
      "penÃ¢h": 3297,
      "ĠMÃ¼d": 3298,
      "Ã¼mi": 3299,
      ")âĢ¦âĢ¦âĢ¦âĢ¦": 3300,
      "teÅŁ": 3301,
      "ehÃ»": 3302,
      "Ġolunmaz": 3303,
      "kÄ±": 3304,
      "ĠilÃ¢h": 3305,
      "ĠÃĩeÅŁ": 3306,
      "ĠkemÃ¢n": 3307,
      "Ã®ÅŁe": 3308,
      "bed": 3309,
      "ĠsÃ¼k": 3310,
      "ĠdahÄ±": 3311,
      "Ġ96": 3312,
      "âģ·": 3313,
      "ĠmÃ¼him": 3314,
      "Es": 3315,
      "Ġbunun": 3316,
      "ĠEbÃ¼": 3317,
      "ĠÙĦ": 3318,
      "mezler": 3319,
      "Ã¢vÃ®": 3320,
      "aleyh": 3321,
      "Ġtat": 3322,
      "ĠzÃ¢t": 3323,
      "ste": 3324,
      "ĠgÃ¶rin": 3325,
      "ĠasÃ¢kir": 3326,
      "ĠhÃ¢kinde": 3327,
      "ĠKÄ±rÄ±m": 3328,
      "uÄ±nda": 3329,
      "Ġoldur": 3330,
      "ĠistimÃ¢": 3331,
      "Ġdedi": 3332,
      "ĠguruÅŁ": 3333,
      "Ã®nin": 3334,
      "ĠCa": 3335,
      "âĢ¦âĢ¦..": 3336,
      "Ġdal": 3337,
      "ĠgÃ¶rdÃ¼m": 3338,
      "ĠÃ¢fitÃ¢b": 3339,
      "Ġseher": 3340,
      "bÃ¢l": 3341,
      "Ä°L": 3342,
      "isÃ¢b": 3343,
      "Ġkoyun": 3344,
      "ĠBez": 3345,
      "ĠVah": 3346,
      "ĠolmasÄ±": 3347,
      "ĠtarafÄ±": 3348,
      "Ġ204": 3349,
      "Ġgarba": 3350,
      "ĠHindistan": 3351,
      "feth": 3352,
      "yÃ®": 3353,
      "iyyenin": 3354,
      "ĠgetÃ¼r": 3355,
      "lÃ®s": 3356,
      "ĠSin": 3357,
      "Ġ200": 3358,
      "meden": 3359,
      "ĠEz": 3360,
      "gamber": 3361,
      "iyograf": 3362,
      "Ġnazm": 3363,
      "Ġá¸¤Ä±": 3364,
      "Ġhizmet": 3365,
      "dÃ¢nÄ±": 3366,
      "ĠbazÄ±": 3367,
      "Ġyerine": 3368,
      "Ã¼fte": 3369,
      "ĠtarafÄ±na": 3370,
      "ĠHind": 3371,
      "Ġvuk": 3372,
      "Ã¼zerÃ¢": 3373,
      "Ġziy": 3374,
      "ĠrÃ¼y": 3375,
      "Ġá¸«aá¸Ń": 3376,
      "Ġá¸¥oá¹¯": 3377,
      "ĠevsÃ¢f": 3378,
      "ĠminÃ¢r": 3379,
      "Ġzul": 3380,
      "Ã»nÃ®": 3381,
      "Ġ152": 3382,
      "Ġmahallesi": 3383,
      "ĠOsmanlÄ±": 3384,
      "ĠMey": 3385,
      "Ġbayr": 3386,
      "Ġeg": 3387,
      "ĠMat": 3388,
      "asl": 3389,
      "Ã¢bÃ¢d": 3390,
      "ĠCev": 3391,
      "ĠgeÃ§er": 3392,
      "eliÄŁi": 3393,
      "sar": 3394,
      "Ġá¸«uá¸«": 3395,
      "ĠahÃ¢lÃ®": 3396,
      "kÃ¢m": 3397,
      "ĠEdi": 3398,
      "ihi": 3399,
      "mÄ±zÄ±": 3400,
      "ĠettiÄŁi": 3401,
      "hÃ¢k": 3402,
      "Ġzen": 3403,
      "ĠÅŁarka": 3404,
      "lad": 3405,
      "su": 3406,
      "ĠcelÃ®": 3407,
      "ĠsÄ±ra": 3408,
      "ohbet": 3409,
      "rib": 3410,
      "ÅŁi": 3411,
      "esinin": 3412,
      "aber": 3413,
      "ĠmÃ¼derr": 3414,
      "ĠÃ¶r": 3415,
      "ĠbaÅŁÄ±": 3416,
      "Ġá¹": 3417,
      "ĠdÃ¼z": 3418,
      "emÃ¢": 3419,
      "Ġcisr": 3420,
      "Ġdim": 3421,
      "ĠCez": 3422,
      "Ġeyleme": 3423,
      "Ġkullan": 3424,
      "ĠcevÃ¢b": 3425,
      "mÃ»": 3426,
      "nun": 3427,
      "ĠNem": 3428,
      "Ġhayli": 3429,
      "Ġ110": 3430,
      "ĠgerÃ§i": 3431,
      "hat": 3432,
      "Äģz": 3433,
      "ÙĦÙĩ": 3434,
      "Ġ109": 3435,
      "ĠrakÃ®b": 3436,
      "ĠsÃ¼nbÃ¼l": 3437,
      "ĠsÃ¼t": 3438,
      "ĠSiy": 3439,
      "ĠEdirne": 3440,
      "mu": 3441,
      "nda": 3442,
      "ĠBeÅŁ": 3443,
      "Ġ86": 3444,
      "ĠÃ§erÃ¢ÄŁ": 3445,
      "ĠHaleb": 3446,
      "Ã¢nesi": 3447,
      "ĠMuÅŁ": 3448,
      "ĠaÄŁz": 3449,
      "ĠMustafa": 3450,
      "ĠnÃ¢r": 3451,
      "ĠKÃ¼r": 3452,
      "Ġkarye": 3453,
      "ĠzÃ¼lfÃ¼n": 3454,
      "rÃ¢m": 3455,
      "ĠsÃ¢y": 3456,
      "Ã¶n": 3457,
      "Ġkalb": 3458,
      "ĠÅŀa": 3459,
      "Ġmus": 3460,
      "ren": 3461,
      "Ġkam": 3462,
      "ĠMedresesi": 3463,
      "beyÃ¢n": 3464,
      "iden": 3465,
      "tÃ®b": 3466,
      "ayn": 3467,
      "ĠKÄ±b": 3468,
      "ĠbeÃ±": 3469,
      "ÃĤÅŁÄ±k": 3470,
      "ĠÃĸz": 3471,
      "ova": 3472,
      "ĠKÃ¼t": 3473,
      "Ġdedikde": 3474,
      "Ġzah": 3475,
      "ĠDi": 3476,
      "Ġ91": 3477,
      "uÃ§": 3478,
      "Ġci": 3479,
      "imi": 3480,
      "asker": 3481,
      "âĢĶ": 3482,
      "Ġ108": 3483,
      "Ġveril": 3484,
      "ĠminÃ¢re": 3485,
      "ĠÅŀerÃ®f": 3486,
      "ĠadÄ±mdÄ±r": 3487,
      "silÃ¢h": 3488,
      "he": 3489,
      "iri": 3490,
      "ĠÅŁec": 3491,
      "ĠÅŁiddet": 3492,
      "Äģd": 3493,
      "ĠDÃ¢": 3494,
      "Arab": 3495,
      "ĠgÃ¢zÃ®": 3496,
      "Ã¢fe": 3497,
      "ĠkÄ±lÄ±Ã§": 3498,
      "ĠÃľm": 3499,
      "ĠÃ¢sum": 3500,
      "ĠihtiyÃ¢r": 3501,
      "ĠkebÃ®r": 3502,
      "ĠsÃ¼z": 3503,
      "ĠdÃ¼ÅŁman": 3504,
      "tev": 3505,
      "Ãİ": 3506,
      "ĠÃľst": 3507,
      "ĠMeÅŁ": 3508,
      "ĠKen": 3509,
      "atan": 3510,
      "ĠYen": 3511,
      "Ġ156": 3512,
      "Ġ158": 3513,
      "ĠBeyt": 3514,
      "ĠhisÃ¢r": 3515,
      "ĠbÃ¶": 3516,
      "Ġ153": 3517,
      "ob": 3518,
      "Ġnok": 3519,
      "ĠpiyÃ¢de": 3520,
      "Ġtahta": 3521,
      "ĠÄ°smÃ¢": 3522,
      "Ġmukadde": 3523,
      "Ġ51": 3524,
      "ĠcÃ¢nibine": 3525,
      "ĠvÃ¢kÄ±": 3526,
      "kara": 3527,
      "ust": 3528,
      "Ġolacak": 3529,
      "allah": 3530,
      "Ã¢yÄ±k": 3531,
      "ĠazÃ®mdir": 3532,
      "neb": 3533,
      "Ãª": 3534,
      "aydÄ±": 3535,
      "ĠpÃ¢diÅŁÃ¢hÃ®": 3536,
      "ĠhÃ¢ÅŁ": 3537,
      "ĠAf": 3538,
      "Ã¢tÄ±m": 3539,
      "dÄ±ÄŁ": 3540,
      "ĠgÃ¼lÅŁen": 3541,
      "Ġ90": 3542,
      "Ġ89": 3543,
      "ĠHakkÄ±": 3544,
      "rÃ¢z": 3545,
      "Ġdut": 3546,
      "all": 3547,
      "ĠÅŁir": 3548,
      "Ġcism": 3549,
      "ĠMevlÃ¢nÃ¢": 3550,
      "Ġgelince": 3551,
      "ĠKÃ¢sÄ±m": 3552,
      "ĠEyy": 3553,
      "ĠMÃ»sÃ¢": 3554,
      "ĠFakat": 3555,
      "Ġsedd": 3556,
      "ÄŁin": 3557,
      "Ġze": 3558,
      "baÅŁ": 3559,
      "nev": 3560,
      "ĠkÃ¼h": 3561,
      "Ġvah": 3562,
      "eyr": 3563,
      "ĠDiyÃ¢r": 3564,
      "Ġkayd": 3565,
      "Äģy": 3566,
      "umÄ±": 3567,
      "Ġ85": 3568,
      "leme": 3569,
      "ĠgÃ¶rÃ¼l": 3570,
      "ĠÃ§eÅŁme": 3571,
      "ĠolmaÄŁÄ±n": 3572,
      "zÃ»l": 3573,
      "Ĵ)": 3574,
      "Ã¢der": 3575,
      "ĠÃĩek": 3576,
      "ĠkirÃ¢m": 3577,
      "anlar": 3578,
      "ĠeÄŁ": 3579,
      "ĠnÃ¼mÃ¢y": 3580,
      "Ġ275": 3581,
      "Ġzerre": 3582,
      "iren": 3583,
      "Ġ83": 3584,
      "Ġ84": 3585,
      "ĠmuhÃ¢f": 3586,
      "ĠÅŁimÃ¢le": 3587,
      "Ġhuk": 3588,
      "Ġvez": 3589,
      "Ġmerd": 3590,
      "Ġ273": 3591,
      "ĠAbb": 3592,
      "Ã¢lemde": 3593,
      ")}": 3594,
      "--": 3595,
      "ceb": 3596,
      "istan": 3597,
      "nÄ±z": 3598,
      "ĠnÃ¢le": 3599,
      "Ġ93": 3600,
      "Ġ144": 3601,
      "Ġhazretlerinin": 3602,
      "layup": 3603,
      "Ġsof": 3604,
      "red": 3605,
      "Ġperi": 3606,
      "ĠiÃ§ine": 3607,
      "AlÃ®": 3608,
      "yÃ¢t": 3609,
      "Ã®le": 3610,
      "amet": 3611,
      "Ã¢ber": 3612,
      "Ġevk": 3613,
      "Ġ268": 3614,
      "ĠÃ¢sitÃ¢ne": 3615,
      "22": 3616,
      "oc": 3617,
      "rÃ»h": 3618,
      "Ġzin": 3619,
      "ĠcÃ¼mlesi": 3620,
      "Ġ154": 3621,
      "Ġbeden": 3622,
      "Ġ^{(": 3623,
      "Ġsef": 3624,
      "ĠBah": 3625,
      "ĠziyÃ¢retgÃ¢h": 3626,
      "ĠDÃ®vÃ¢n": 3627,
      "ĠMemÃ¢lik": 3628,
      "bÃ»": 3629,
      "Ġdile": 3630,
      "ĠcÄģn": 3631,
      "ĠÃ§Ã¢k": 3632,
      "Ġ190": 3633,
      "ĠkurÅŁum": 3634,
      "Ġ267": 3635,
      "ĠkarÅŁu": 3636,
      "MevlÃ¢": 3637,
      "bÃ®h": 3638,
      "Ġzenc": 3639,
      "lat": 3640,
      "ĠhÃ¼s": 3641,
      "ĠcÃ¢": 3642,
      "Ġolmayup": 3643,
      "mÄ±ÅŁtÄ±r": 3644,
      "Ġ197": 3645,
      "Ġkalkup": 3646,
      "ĠÄ±r": 3647,
      "Ã¢ce": 3648,
      "dest": 3649,
      "ĠgÃ¢h": 3650,
      "ĠNazm": 3651,
      "Ġkubb": 3652,
      "ĠbÃ¢lÃ¢da": 3653,
      "ĠnÃ¢b": 3654,
      "ĠEd": 3655,
      "ĠTen": 3656,
      "ĠÅŀan": 3657,
      "ĠdÃ¼ÅŁÃ¼p": 3658,
      "ĠiriÅŁ": 3659,
      "ÙĪØ§": 3660,
      "Ġgiderken": 3661,
      "rÃ®n": 3662,
      "Ġkit": 3663,
      "Ġkelle": 3664,
      "leridir": 3665,
      "ecek": 3666,
      "Ġ88": 3667,
      "Ġ157": 3668,
      "Ġedip": 3669,
      "ĠyetiÅŁ": 3670,
      "ĠfirÃ¢r": 3671,
      "ĠBÃ¢rÃ®": 3672,
      "Ã¶h": 3673,
      "ĠKul": 3674,
      "Ġayn": 3675,
      "Ġ285": 3676,
      "ĠsancaÄŁÄ±": 3677,
      "fet": 3678,
      "ĠÅŁad": 3679,
      "ĠcÃ¼r": 3680,
      "Ä±lÄ±p": 3681,
      "ÙĪÙĨ": 3682,
      "ĠvezÃ®ri": 3683,
      "ĠolÄ±ndÄ±": 3684,
      "tab": 3685,
      "ĠkÃ¼ÅŁ": 3686,
      "Ġmelek": 3687,
      "ĠtÃ¢k": 3688,
      "ĠmÃ¼y": 3689,
      "ĠboÄŁaz": 3690,
      "cÃ¼m": 3691,
      "sÃ¢l": 3692,
      "ĠNice": 3693,
      "30": 3694,
      "kin": 3695,
      "Ġdediler": 3696,
      "Ġ118": 3697,
      "Ġ254": 3698,
      "Ġ259": 3699,
      "eyz": 3700,
      "Ġherkes": 3701,
      "Ġbilgi": 3702,
      "âģ¹": 3703,
      "ĠÃľsk": 3704,
      "Ġetdikde": 3705,
      "Ġmihnet": 3706,
      "Ġdiye": 3707,
      "Ġnah": 3708,
      "esiyle": 3709,
      "Ã¢kÃ¼l": 3710,
      "Ã¼sÃ¼": 3711,
      "uzÃ¢t": 3712,
      "Ġ87": 3713,
      "Ġ125": 3714,
      "Ġ184": 3715,
      "Ġ274": 3716,
      "ĠmÃ¼nteh": 3717,
      "ĠÅŁÃ®rÃ®n": 3718,
      "'ve": 3719,
      "Ġ102": 3720,
      "(?)": 3721,
      "Ġsol": 3722,
      "ĠbeÄŁi": 3723,
      "ĠbÃ¢ÄŁÃ§e": 3724,
      "Ġsana": 3725,
      "ĠEhl": 3726,
      "Ã¡": 3727,
      "ĠkÃ¢ÅŁ": 3728,
      "ĠHikmet": 3729,
      "Ġhavf": 3730,
      "Ġkudret": 3731,
      "ĠserÃ¢pÃ¢": 3732,
      "ÅŁÃ®r": 3733,
      "ĠyiÄŁ": 3734,
      "34": 3735,
      "Ã¢tÃ®n": 3736,
      "edik": 3737,
      "ĠKemÃ¢l": 3738,
      "ĠRusya": 3739,
      "ĠgulÃ¢m": 3740,
      "Ġ:": 3741,
      "anber": 3742,
      "ene": 3743,
      "ĠÃ§Ã¶": 3744,
      "Ġmuz": 3745,
      "ĠCil": 3746,
      "Ã¢cib": 3747,
      "Ġ185": 3748,
      "ĠmÃ¼tev": 3749,
      "cÃ¢": 3750,
      "ĠÅŁay": 3751,
      "iyyÃ¢": 3752,
      "Ġ213": 3753,
      "Ġmekt": 3754,
      "dÄ±n": 3755,
      "Ġgevher": 3756,
      "ĠCeb": 3757,
      "Ġ262": 3758,
      "Ã®ce": 3759,
      "Ġele": 3760,
      "ĠsÃ¼vÃ¢r": 3761,
      "iÅŁt": 3762,
      "ĠYahyÃ¢": 3763,
      "Ġefendimiz": 3764,
      "].": 3765,
      "hÃ¢b": 3766,
      "Ġayr": 3767,
      "ĠaÄŁaÃ§": 3768,
      "Ġ164": 3769,
      "Ġ175": 3770,
      "geh": 3771,
      "kad": 3772,
      "rÃ¢d": 3773,
      "ÅŁem": 3774,
      "ĠbÃ¶l": 3775,
      "ĠzÃ¼l": 3776,
      "Ġedin": 3777,
      "Ġ72": 3778,
      "Ã¼dÃ¢": 3779,
      "ĠEmrÃ®": 3780,
      "ĠmÃ®l": 3781,
      "ÄŁini": 3782,
      "ell": 3783,
      "ĠVelÃ®": 3784,
      "ĠuÃ§": 3785,
      "elef": 3786,
      "Ø§ÙĨ": 3787,
      "Ġetdim": 3788,
      "ĠbunlarÄ±n": 3789,
      "Ġ310": 3790,
      "ĠÄ°ÅŁte": 3791,
      "beri": 3792,
      "ĠÅŁaf": 3793,
      "ĠNÃ»h": 3794,
      "Ġbulur": 3795,
      "Ġ255": 3796,
      "ĠgÃ¶Ã±Ã¼l": 3797,
      "ĠEdib": 3798,
      "Ġbiyograf": 3799,
      "ĠKab": 3800,
      "Ã»dÃ®": 3801,
      "Ġ82": 3802,
      "ĠÃ§eker": 3803,
      "Ġtoprak": 3804,
      "Ġgitdi": 3805,
      "ĠgetirÃ¼p": 3806,
      "Ãĩ": 3807,
      "ĠkibÃ¢r": 3808,
      "Ġnez": 3809,
      "Ġ279": 3810,
      "ĠtoplarÄ±": 3811,
      "ĠdÃ¢men": 3812,
      "miÅŁler": 3813,
      "ĠhevÃ¢": 3814,
      "ĠbÄ±rak": 3815,
      "aklÄ±": 3816,
      "ĠHaz": 3817,
      "ĠEvl": 3818,
      "uft": 3819,
      "ĠmihmÃ¢n": 3820,
      "Ġsuyu": 3821,
      "Ġ220": 3822,
      "ĠkÄ±rmÄ±zÄ±": 3823,
      "ĠÃ§ekÃ¼p": 3824,
      "ĠÃ§arh": 3825,
      "adi": 3826,
      "Ã»du": 3827,
      "allim": 3828,
      "mede": 3829,
      "ĠbenÃ®": 3830,
      "Ġ143": 3831,
      "ĠhazÃ®n": 3832,
      "Ġkonak": 3833,
      "Ġmelik": 3834,
      "ĠkÃ¼t": 3835,
      "ĠsÃ®n": 3836,
      "amÃ¢n": 3837,
      "ĠZÃ¢tÃ®": 3838,
      "Ġ137": 3839,
      "Ġ166": 3840,
      "ĠhÃ¼kÃ»met": 3841,
      "ĠfÄģ": 3842,
      "Ã¢si": 3843,
      "Ġtarz": 3844,
      "ĠilÃ¢tÃ¼n": 3845,
      "Ġ113": 3846,
      "ĠÅŁimÃ¢l": 3847,
      "ĠÅŁÃ¶yle": 3848,
      "ĠRah": 3849,
      "ĠgÃ¼neÅŁ": 3850,
      "Ġ205": 3851,
      "ĠkÄ±ldÄ±": 3852,
      "ĠÅŁÃ¼h": 3853,
      "Ġvarak": 3854,
      "IÅŁk": 3855,
      "dirÃ¼p": 3856,
      "Ġdilde": 3857,
      "Ã®dÃ®": 3858,
      "ĠhayrÃ¢n": 3859,
      "iger": 3860,
      "Menzil": 3861,
      "Ġkil": 3862,
      "ĠDÃ®n": 3863,
      "Ġbilmez": 3864,
      "Ġdeyr": 3865,
      "Ġ234": 3866,
      "Ġgazel": 3867,
      "sel": 3868,
      "ÅŁeyh": 3869,
      "ĠKeth": 3870,
      "ĠgÃ¶nderil": 3871,
      "ĠsÃ®m": 3872,
      "ĠtuÄŁ": 3873,
      "ulu": 3874,
      "Ġ130": 3875,
      "Ġ116": 3876,
      "Ġ229": 3877,
      "cidi": 3878,
      "ĠmetÃ¢": 3879,
      "ĠEski": 3880,
      "ĠYemen": 3881,
      "ĠyÃ¼zi": 3882,
      "Ã»lÃ¼": 3883,
      "Ġ300": 3884,
      "Ġabone": 3885,
      "lerÃ¼m": 3886,
      "ĠÄ°st": 3887,
      "umda": 3888,
      "ĠYÃ¢r": 3889,
      "ĠNesr": 3890,
      "tere": 3891,
      "Ġkaf": 3892,
      "Ġneb": 3893,
      "ĠgÃ¶k": 3894,
      "Ġ167": 3895,
      "Ġ289": 3896,
      "ĠsipÃ¢h": 3897,
      "ĠhÃ¼kmÃ¼nde": 3898,
      "mamÄ±ÅŁ": 3899,
      "ĠkÄ±t": 3900,
      "Ġney": 3901,
      "ĠBas": 3902,
      "Ã¢fÄ±z": 3903,
      "Ġ168": 3904,
      "erc": 3905,
      "ĠBeh": 3906,
      "Ġmedh": 3907,
      "bay": 3908,
      "larla": 3909,
      "emiz": 3910,
      "Ġ81": 3911,
      "Ġ115": 3912,
      "ĠGÃ¼lÅŁen": 3913,
      "ĠHakkÃ¢": 3914,
      "dÃ»h": 3915,
      "ĠkÃ¢s": 3916,
      "ĠkaldÄ±r": 3917,
      "Ġeyleye": 3918,
      "Ġlutf": 3919,
      "ĠÃ§eÅŁmÃ¼m": 3920,
      "ĠÃ¢mÃ¢de": 3921,
      "Ġmemleket": 3922,
      "Ã¼ncÃ¼": 3923,
      "ĠDÃ¢v": 3924,
      "ĠRec": 3925,
      "Ġ127": 3926,
      "Ġcid": 3927,
      "Ã¢tlar": 3928,
      "ĠÅŀah": 3929,
      "Ġ120": 3930,
      "ĠnihÃ¢yet": 3931,
      "rahmÃ¢n": 3932,
      "ĠyiÄŁit": 3933,
      "Ġyed": 3934,
      "ĠAd": 3935,
      "ibe": 3936,
      "Ã®rÃ®": 3937,
      "Ġinc": 3938,
      "Ġ117": 3939,
      "ofya": 3940,
      "ĠmahsÃ»s": 3941,
      "Abdu": 3942,
      "Ġbes": 3943,
      "Ġsaf": 3944,
      "ĠnÃ¼z": 3945,
      "ĠniÅŁ": 3946,
      "Ġ114": 3947,
      "Ġ237": 3948,
      "verrih": 3949,
      "ĠbahÃ¢r": 3950,
      "ĠteslÃ®m": 3951,
      "zÃ¢z": 3952,
      "ĠcefÃ¢": 3953,
      "Ġfa": 3954,
      "ĠNa": 3955,
      "ĠDef": 3956,
      "dikleri": 3957,
      "ĠhiÃ§bir": 3958,
      "ĠbÃ¼r": 3959,
      "Ã®met": 3960,
      "Ġsun": 3961,
      "ĠHad": 3962,
      "iyat": 3963,
      "ĠcÃ¢nÄ±": 3964,
      "Ã¼ccÃ¢r": 3965,
      "ĠBay": 3966,
      "ĠSan": 3967,
      "Ġolmaya": 3968,
      "Ġ223": 3969,
      "Ġ215": 3970,
      "ĠbahÅŁ": 3971,
      "Ġnefes": 3972,
      "Ġnam": 3973,
      "Ġbenim": 3974,
      "Ġarab": 3975,
      "Ġhamd": 3976,
      "kele": 3977,
      "tek": 3978,
      "Ġmeger": 3979,
      "Ã»da": 3980,
      "daÅŁ": 3981,
      "Ġ270": 3982,
      "arrer": 3983,
      "kÄ±r": 3984,
      "Ġduh": 3985,
      "ĠkurÃ¢": 3986,
      "Ġ183": 3987,
      "ĠcÃ¢nibinde": 3988,
      "Ġdiler": 3989,
      "Ġoda": 3990,
      "ĠhilÃ¢l": 3991,
      "ĠbalÄ±k": 3992,
      "bur": 3993,
      "bey": 3994,
      "ĠyÃ¼zÃ¼n": 3995,
      "Ä±mÄ±": 3996,
      "Ġ148": 3997,
      "Ġgark": 3998,
      "ĠÃ¢lim": 3999,
      "lÃ¢b": 4000,
      "ĠHÄ±z": 4001,
      "ĠÃ§Ã¼": 4002,
      "ifÃ¢": 4003,
      "ĠNazmÃ®": 4004,
      "Ġ140": 4005,
      "Ġmanz": 4006,
      "Ġmefa": 4007,
      "ĠSultan": 4008,
      "ĠtahsÃ®l": 4009,
      "Ã¼lk": 4010,
      "ĠTe": 4011,
      "ĠRamaz": 4012,
      "Ġolunca": 4013,
      "Ġ214": 4014,
      "ĠUy": 4015,
      "Ġulu": 4016,
      "ĠNemse": 4017,
      "ÅŁid": 4018,
      "Ġsit": 4019,
      "esser": 4020,
      "atÃ¼": 4021,
      "ĠÄ°k": 4022,
      "Ġ139": 4023,
      "Ġ191": 4024,
      "Ġ203": 4025,
      "Ġ124": 4026,
      "Ġ286": 4027,
      "Ġihtim": 4028,
      "ĠSehÃ¢bÃ®": 4029,
      "ĠÅŀimdi": 4030,
      "\",": 4031,
      "RE": 4032,
      "Ġteh": 4033,
      "Ġzabt": 4034,
      "ĠÄ°m": 4035,
      "Ġ71": 4036,
      "Ġ199": 4037,
      "Ġ257": 4038,
      "Ġ292": 4039,
      "ĠÅŁerÃ®fi": 4040,
      "ĠÅŁanma": 4041,
      "ĠsahrÃ¢": 4042,
      "giz": 4043,
      "has": 4044,
      "Ġtol": 4045,
      "seÃ±": 4046,
      "ĠgÃ¶nlÃ¼m": 4047,
      "gÃ¼z": 4048,
      "ĠBÃ¼y": 4049,
      "ĠSir": 4050,
      "ĠrÃ¼ÅŁ": 4051,
      "Ġ186": 4052,
      "Ġ287": 4053,
      "dukda": 4054,
      "emez": 4055,
      "Ã¼ÄŁ": 4056,
      "Ġada": 4057,
      "Ġfark": 4058,
      "Ã»rÃ®": 4059,
      "ĠReÅŁ": 4060,
      "ĠRuh": 4061,
      "Ġ135": 4062,
      "Ġ163": 4063,
      "dÃ¼kÃ§e": 4064,
      "ĠÃ¢fÃ¢k": 4065,
      "ĠsilÃ¢h": 4066,
      "las": 4067,
      "Ã®c": 4068,
      "ĠhÃ»n": 4069,
      "ĠUm": 4070,
      "ĠhÃ¢kimi": 4071,
      "ĠÃĤhir": 4072,
      "ĠÅŁÃ¢": 4073,
      "Ã¢bit": 4074,
      "ĠÄ°ran": 4075,
      "Ġuc": 4076,
      "Ġ265": 4077,
      "âģ°": 4078,
      "EB": 4079,
      "Ã¼vÃ¢n": 4080,
      "Ġ189": 4081,
      "Ġ178": 4082,
      "ĠÃĩÃ¼nkÃ¼": 4083,
      "ĠhelÃ¢k": 4084,
      "Ġhalka": 4085,
      "ĠpeydÃ¢": 4086,
      "ĠVezÃ®r": 4087,
      "Ġelbette": 4088,
      "ĠÃ¶p": 4089,
      "Ġ202": 4090,
      "ĠyaÃ±a": 4091,
      "grad": 4092,
      "Ġcan": 4093,
      "ĠMelik": 4094,
      "ĠÃ§erh": 4095,
      "ĠÄ°r": 4096,
      "Ġ266": 4097,
      "ĠhezÃ¢r": 4098,
      "ĠtÃ®mÃ¢r": 4099,
      "ĠSon": 4100,
      "ĠÄ°lÃ¢h": 4101,
      "ĠYÃ¢": 4102,
      "Ġ239": 4103,
      "Ġkerem": 4104,
      "ĠmahlÃ»t": 4105,
      "yye": 4106,
      "ÅŁeh": 4107,
      "Ã¢lis": 4108,
      "Ġ196": 4109,
      "Ġ119": 4110,
      "edim": 4111,
      "Ġ122": 4112,
      "Ġ277": 4113,
      "AR": 4114,
      "hem": 4115,
      "sinden": 4116,
      "Ġkey": 4117,
      "Ġmun": 4118,
      "ĠyÄ±k": 4119,
      "ayÄ±r": 4120,
      "Ġ238": 4121,
      "ĠGÃ¼r": 4122,
      "Ã®lÃ¼": 4123,
      "ĠLey": 4124,
      "Ã¢cid": 4125,
      "Ġ258": 4126,
      "Ã¢set": 4127,
      "ĠedÃ¢": 4128,
      "ĠNas": 4129,
      "ĠØ³": 4130,
      "ĠÃ¢demler": 4131,
      "ĠAbdullah": 4132,
      "ĠÄ°ngiliz": 4133,
      "II": 4134,
      "gir": 4135,
      "ÅŁÃ®d": 4136,
      "andÄ±r": 4137,
      "ĠÃ§avuÅŁ": 4138,
      "Ġ41": 4139,
      "ĠdÃ¶k": 4140,
      "Ġ193": 4141,
      "Ġ272": 4142,
      "Ġ278": 4143,
      "vÃ¢h": 4144,
      "ĠPey": 4145,
      "Ġ128": 4146,
      "SÄ°": 4147,
      "YÃ¢": 4148,
      "Ã¼lis": 4149,
      "Ġ194": 4150,
      "Ġ228": 4151,
      "Ã»ÅŁe": 4152,
      "ĠÃ¼stinde": 4153,
      "ĠHakÃ®r": 4154,
      "mÃ¢dÃ¢r": 4155,
      "ĠBÃ¶yle": 4156,
      "aÅŁr": 4157,
      "Ã¢be": 4158,
      "ĠgÃ¼listÃ¢n": 4159,
      "Ġ101": 4160,
      "Ġ192": 4161,
      "Ġ169": 4162,
      "Ġ316": 4163,
      "ĠimÃ¢m": 4164,
      "Ġhid": 4165,
      "reb": 4166,
      "ĠolmadÄ±": 4167,
      "endÃ¢z": 4168,
      "Ġ146": 4169,
      "Ġ256": 4170,
      "ĠmezÃ¢r": 4171,
      "ĠemÃ®ni": 4172,
      "Ġdibinde": 4173,
      "ĠmuhÃ¢sara": 4174,
      "Ġá¸«uá¸«u": 4175,
      "hÃ®d": 4176,
      "Ã¢st": 4177,
      "Ġsok": 4178,
      "Ġ62": 4179,
      "Ġ150": 4180,
      "ĠkurbÃ¢n": 4181,
      "Ġ111": 4182,
      "Ġ112": 4183,
      "Ġ209": 4184,
      "ĠhÃ¼mÃ¢yÃ»n": 4185,
      "kÃ»l": 4186,
      "leÅŁ": 4187,
      "Ġsur": 4188,
      "ĠTop": 4189,
      "Ġeyit": 4190,
      "Ġolma": 4191,
      "Ġ210": 4192,
      "fÃ®": 4193,
      "ĠØª": 4194,
      "diÄŁimiz": 4195,
      "SebÃ®lÃ¼rreÅŁÃ¢d": 4196,
      "ĠhumÃ¢y": 4197,
      "rup": 4198,
      "Ġyah": 4199,
      "ĠgÃ¶rÃ¼r": 4200,
      "Ġ155": 4201,
      "ĠikiÅŁer": 4202,
      "ĠAbbÃ¢s": 4203,
      "Ġun": 4204,
      "ĠBoÄŁ": 4205,
      "elden": 4206,
      "mekle": 4207,
      "Ġ253": 4208,
      "Ġ235": 4209,
      "Ġyeni": 4210,
      "ĠvaÅŁl": 4211,
      "ĠUrbÃ¢n": 4212,
      "ĠÅŁaÃ§": 4213,
      "ĠÅŀatt": 4214,
      "Ġ121": 4215,
      "ĠhisÃ¢b": 4216,
      "ĠDiyÃ¢rbek": 4217,
      "Ġtok": 4218,
      "Ġyire": 4219,
      "Ġvardur": 4220,
      "Ġyerden": 4221,
      "ĠictimÃ¢": 4222,
      "ĠKoca": 4223,
      "ĠmahsÃ»l": 4224,
      "ĠØ§": 4225,
      "ĠkÃ¼r": 4226,
      "Ġkop": 4227,
      "ĠsÃ¢kÃ®": 4228,
      "Ġ138": 4229,
      "Ã¼yor": 4230,
      "Ġ276": 4231,
      "Ġ305": 4232,
      "Ä±fat": 4233,
      "ĠkurbÃ¼nde": 4234,
      "cÄ±yÃ¢n": 4235,
      "Ġgeh": 4236,
      "Ġvel": 4237,
      "akl": 4238,
      "ezz": 4239,
      "Ġevc": 4240,
      "Ġ141": 4241,
      "ĠsÃ¢Ê»": 4242,
      "ĠdÃ¢ir": 4243,
      "ĠmuvÃ¢f": 4244,
      "ĠÅŁikÃ¢r": 4245,
      "Ã§ak": 4246,
      "ĠHav": 4247,
      "dÃ¼gi": 4248,
      "Ġ92": 4249,
      "Ġmescidi": 4250,
      "Ġ180": 4251,
      "ĠbiÃ±": 4252,
      "tanat": 4253,
      "ĠkethudÃ¢sÄ±": 4254,
      "bÃ¢": 4255,
      "ĠdiÅŁ": 4256,
      "Ã¢yiÅŁ": 4257,
      "Ġolurdu": 4258,
      "Ġ61": 4259,
      "ĠhÃ¢li": 4260,
      "Ġ161": 4261,
      "Ġbundan": 4262,
      "Ġbunlara": 4263,
      "Ġ290": 4264,
      "ÃľR": 4265,
      "ĠzuhÃ»r": 4266,
      "ĠDÃ¼kkÃ¢n": 4267,
      "edÃ¢r": 4268,
      "ĠÅŁehÃ¢": 4269,
      "Ġ188": 4270,
      "Ġ284": 4271,
      "Ġ313": 4272,
      "ĠÅŁeker": 4273,
      "nÃ¢m": 4274,
      "rÃ®s": 4275,
      "ĠEser": 4276,
      "eci": 4277,
      "Ã¢viye": 4278,
      "Ġ136": 4279,
      "Ġ282": 4280,
      "Ġ291": 4281,
      "Ä±lmÄ±ÅŁtÄ±r": 4282,
      "Ø°": 4283,
      "Ġtim": 4284,
      "ĠTeÅŁ": 4285,
      "Ġ162": 4286,
      "ilen": 4287,
      "Ġ295": 4288,
      "Ġhasret": 4289,
      "Ø§Øª": 4290,
      "ĠlezÃ®z": 4291,
      "may": 4292,
      "ĠMÃ¼s": 4293,
      "ĠHey": 4294,
      "azm": 4295,
      "Ġdilden": 4296,
      "ĠZey": 4297,
      "Ġ260": 4298,
      "ellef": 4299,
      "ĠKÄ±zÄ±l": 4300,
      "36": 4301,
      "tesi": 4302,
      "ĠÅŁÃ¶h": 4303,
      "Ġ221": 4304,
      "Ġmukaddem": 4305,
      "ĠyakÄ±n": 4306,
      "ĠbÃ¢zÃ¢rÄ±": 4307,
      "ĠkÄ±bleye": 4308,
      "ĠdidÃ¼m": 4309,
      "ĠBezm": 4310,
      "ĠkÃ¼n": 4311,
      "ĠTeb": 4312,
      "Ã¢leti": 4313,
      "ĠÄ·": 4314,
      "seriyyÃ¢": 4315,
      "ĠmÃ¢beyninde": 4316,
      "Ġza": 4317,
      "Ã¢zÄ±": 4318,
      "ĠBuh": 4319,
      "Ġilk": 4320,
      "Ġ208": 4321,
      "Ġ129": 4322,
      "Ġ145": 4323,
      "Ġkadem": 4324,
      "ladÄ±": 4325,
      "ĠÅŁafÃ¢": 4326,
      "mege": 4327,
      "ĠTÃ¼r": 4328,
      "ĠiÃ§eri": 4329,
      "Ġhayme": 4330,
      "ĠdaÄŁlar": 4331,
      "ĠmÃ¼mkÃ¼n": 4332,
      "EsnÃ¢f": 4333,
      "Ġbat": 4334,
      "Ġkaya": 4335,
      "ilÄģt": 4336,
      "Ġolmayan": 4337,
      "ĠBiri": 4338,
      "Ġ207": 4339,
      "Ġ182": 4340,
      "Ġ170": 4341,
      "Ġ283": 4342,
      "Ġeks": 4343,
      "ĠderyÃ¢da": 4344,
      "ĠvefÃ¢t": 4345,
      "mÄ±": 4346,
      "erÃ¢n": 4347,
      "irmen": 4348,
      "ĠyÃ¢re": 4349,
      "Ä±ÅŁka": 4350,
      "Ê»de": 4351,
      "Ġ142": 4352,
      "Ġ250": 4353,
      "Ġ176": 4354,
      "Ġ226": 4355,
      "Ġ301": 4356,
      "ĠHabeÅŁ": 4357,
      "kÃ»b": 4358,
      "Ġsin": 4359,
      "ĠHÄ±r": 4360,
      "ama": 4361,
      "ĠVir": 4362,
      "edÃ®d": 4363,
      "ĠseneliÄŁi": 4364,
      "ĠZer": 4365,
      "Ġ309": 4366,
      "ĠBunun": 4367,
      "Ġ294": 4368,
      "Ġ319": 4369,
      "ĠetmiÅŁlerdir": 4370,
      "allÃ¢hu": 4371,
      "ĠhicrÃ¢n": 4372,
      "Ġelinde": 4373,
      "ĠaylÄ±ÄŁÄ±": 4374,
      "Ġ269": 4375,
      "Ġgerm": 4376,
      "Ġ323": 4377,
      "Ġïģ´": 4378,
      "ĠhuddÃ¢m": 4379,
      "rÃ»f": 4380,
      "ikat": 4381,
      "Ġ251": 4382,
      "Ġ306": 4383,
      "ĠtÃ¢rÃ®hi": 4384,
      "ĠperiÅŁÃ¢n": 4385,
      "tin": 4386,
      "Ø©": 4387,
      "Ġgiy": 4388,
      "ĠMÃ¢": 4389,
      "Ã¢bele": 4390,
      "ĠiÃ§er": 4391,
      "ĠRÃ»": 4392,
      "uÃ±da": 4393,
      "Ġ195": 4394,
      "Ġ252": 4395,
      "Ġ288": 4396,
      "dÃ¼ÄŁÃ¼": 4397,
      "sini": 4398,
      "ilÃ¼rreÅŁÃ¢d": 4399,
      "ĠÃ§uk": 4400,
      "Ġfevk": 4401,
      "Ġ206": 4402,
      "ĠErmen": 4403,
      "ĠhusÃ»s": 4404,
      "ĠmÃ¼yesser": 4405,
      "ĠolalÄ±": 4406,
      "ĠgÃ¼nÃ¼": 4407,
      "Ġ212": 4408,
      "Ġ328": 4409,
      "ÙĩØ¯": 4410,
      "ĠHamd": 4411,
      "ĠÃ®mÃ¢n": 4412,
      "ĠKÃ¢r": 4413,
      "ĠrÃ»": 4414,
      "ĠfakÃ®r": 4415,
      "ĠmÃ¢nend": 4416,
      "zÃ¢t": 4417,
      "ĠÄ±h": 4418,
      "Ġkelim": 4419,
      "Ã¼mde": 4420,
      "Ġettik": 4421,
      "Ġ151": 4422,
      "Ġtabak": 4423,
      "diyye": 4424,
      "Ġkuy": 4425,
      "Ġveya": 4426,
      "ĠgÃ¼ne": 4427,
      "ĠkÃ¢t": 4428,
      "ĠnÃ¼r": 4429,
      "Ġnum": 4430,
      "ĠSah": 4431,
      "ĠTemm": 4432,
      "Ġdilber": 4433,
      "Ã»ÅŁen": 4434,
      "ĠÃ§Ä±karup": 4435,
      "ĠÅŁair": 4436,
      "ĠBÃ¢kÃ®": 4437,
      "ĠSek": 4438,
      "ĠNih": 4439,
      "Ġ308": 4440,
      "ĠMuhammedÃ®": 4441,
      "kez": 4442,
      "astÄ±r": 4443,
      "Ġzan": 4444,
      "evvel": 4445,
      "Ġ131": 4446,
      "ĠmerdÃ¼m": 4447,
      "Ġïģ°": 4448,
      "EvsÃ¢f": 4449,
      "Ġcum": 4450,
      "ĠKÄ±l": 4451,
      "ĠÄ°rem": 4452,
      "Ġedince": 4453,
      "ĠmÃ¼verrih": 4454,
      "Ä±lÄ±k": 4455,
      "Ġ147": 4456,
      "Ġ149": 4457,
      "Ġ187": 4458,
      "Ġ299": 4459,
      "ĠÅŁekil": 4460,
      "ĠumÃ»m": 4461,
      "ĠvÃ¢dÃ®": 4462,
      "ĠvÃ¼zerÃ¢": 4463,
      "ekk": 4464,
      "Äģk": 4465,
      "edÃ¢n": 4466,
      "iyyeye": 4467,
      "Ġ123": 4468,
      "Ġ263": 4469,
      "Ġ222": 4470,
      "Ġ281": 4471,
      "Ġ318": 4472,
      "Ġmaks": 4473,
      "ĠØ§ÙĦØ±": 4474,
      "ĠkÃ¢kÃ¼l": 4475,
      "Ġgen": 4476,
      "Ġag": 4477,
      "Ã¢ba": 4478,
      "Ġsenesinde": 4479,
      "ĠAnkara": 4480,
      "Ġ219": 4481,
      "Ġ248": 4482,
      "Ġdirler": 4483,
      "ĠyalnÄ±z": 4484,
      "ĠsancaÄŁ": 4485,
      "Ã¢yir": 4486,
      "Ä±ya": 4487,
      "Ġ227": 4488,
      "Ġ314": 4489,
      "Ġ245": 4490,
      "niÅŁÃ®n": 4491,
      "Ġ293": 4492,
      "Ġ297": 4493,
      "ĠetmiÅŁler": 4494,
      "ĠhevÃ¢sÄ±": 4495,
      "ĠgÃ¶nderÃ¼p": 4496,
      "Ġ(â": 4497,
      "ĠmuÄŁ": 4498,
      "Ġ160": 4499,
      "ĠErdel": 4500,
      "pÃ¢re": 4501,
      "irf": 4502,
      "Ã¼ni": 4503,
      "ĠYeni": 4504,
      "Ã®dÃ¢r": 4505,
      "Ã¼Ã±e": 4506,
      "Ġ172": 4507,
      "Ġ217": 4508,
      "ĠsÃ»ret": 4509,
      "je": 4510,
      "ĠguzÃ¢t": 4511,
      "Ã¢bÃ¢n": 4512,
      "ibr": 4513,
      "ĠDÃ¼n": 4514,
      "slan": 4515,
      "Ġ230": 4516,
      "Ġ249": 4517,
      "ĠgeÃ§ir": 4518,
      "ÙĬÙħ": 4519,
      "ĠsÃ¢hil": 4520,
      "ĠÃĩeÅŁm": 4521,
      "Ġceh": 4522,
      "Ġnec": 4523,
      "ĠpeÅŁ": 4524,
      "Ġistih": 4525,
      "ĠayrÄ±": 4526,
      "Ġ211": 4527,
      "Ġ312": 4528,
      "Ġokun": 4529,
      "ĠReceb": 4530,
      "ÅŁÃ¢r": 4531,
      "ĠkÃ¢l": 4532,
      "Ġdar": 4533,
      "ĠÅŁabÃ¢": 4534,
      "ĠYÄ±l": 4535,
      "Ä±za": 4536,
      "Ã¢vÃ¼l": 4537,
      "Ã®zÃ¢de": 4538,
      "Ġ179": 4539,
      "Ġ296": 4540,
      "ÃĤlem": 4541,
      "ÙĬÙĨ": 4542,
      "kÄ±ymet": 4543,
      "Åį": 4544,
      "Ġyeri": 4545,
      "abba": 4546,
      "ĠTur": 4547,
      "ĠGam": 4548,
      "Ġederdi": 4549,
      "Ġ126": 4550,
      "Ġtoplar": 4551,
      "ĠAtÃ¢yÃ®": 4552,
      "ĠsÃ¢ye": 4553,
      "ĠMon": 4554,
      "ism": 4555,
      "ĠiÃ§inden": 4556,
      "Ġhayret": 4557,
      "Ġ198": 4558,
      "Ġ173": 4559,
      "ĠintikÃ¢l": 4560,
      ")âĢ¦âĢ¦âĢ¦âĢ¦âĢ¦âĢ¦..": 4561,
      "Ġetmez": 4562,
      "ĠgelmiÅŁ": 4563,
      "Ã®be": 4564,
      "Ġ171": 4565,
      "Ġikinci": 4566,
      "lend": 4567,
      "Ã»fe": 4568,
      "ĠMesÃ®h": 4569,
      "ĠeflÃ¢k": 4570,
      "Ã¼stak": 4571,
      "ĠdÃ¼rr": 4572,
      "Ġmazhar": 4573,
      "Ġá¹¢": 4574,
      "Ġbab": 4575,
      "Ġgem": 4576,
      "ĠsÃ¢z": 4577,
      "ĠcÃ¼mleden": 4578,
      "Ġolanlar": 4579,
      "Ġ165": 4580,
      "Ġisim": 4581,
      "Terc": 4582,
      "ĠÄ°c": 4583,
      "itek": 4584,
      "Ġeylemez": 4585,
      "madan": 4586,
      "Ġ307": 4587,
      "Ġmeyl": 4588,
      "adÄ±ra": 4589,
      "Ġboyn": 4590,
      "ĠmevcÃ»d": 4591,
      "Ø´Ø§Ø": 4592,
      "ĠBÃ¢ÄŁ": 4593,
      "ĠYok": 4594,
      "ĠFur": 4595,
      "ĠlÃ¢kin": 4596,
      "Ġ240": 4597,
      "Ġsiyeh": 4598,
      "ĠNecÃ¢tÃ®": 4599,
      "ĠgÃ¼yÃ¢": 4600,
      "ĠmÃ¼nhedim": 4601,
      "ĠEyyÃ»b": 4602,
      "rÃ¼k": 4603,
      "ĠHÃ¢r": 4604,
      "ĠDidi": 4605,
      "Ġ201": 4606,
      "Ġtekyesi": 4607,
      "aziz": 4608,
      "Ġluft": 4609,
      "ĠÅŁehre": 4610,
      "ĠcihÃ¢nda": 4611,
      "ĠBenÃ®": 4612,
      "ĠmÃ¼kellef": 4613,
      "uÃ®": 4614,
      "yin": 4615,
      "ellif": 4616,
      "ĠzÃ®r": 4617,
      "ĠesrÃ¢r": 4618,
      "Ġ174": 4619,
      "Ġ177": 4620,
      "Ġ264": 4621,
      "Ġbelir": 4622,
      "ĠaÃ§Ä±k": 4623,
      "Ġavret": 4624,
      "ĠgÃ¢ret": 4625,
      "Ġkadd": 4626,
      "Ġ247": 4627,
      "Ey": 4628,
      "Ã®t": 4629,
      "Ã®Ã§": 4630,
      "ĠBit": 4631,
      "ehli": 4632,
      "ĠGeÃ§": 4633,
      "aca": 4634,
      "Ġ320": 4635,
      "arrem": 4636,
      "nem": 4637,
      "ĠgÄ±l": 4638,
      "ĠMez": 4639,
      "elen": 4640,
      "dÃ¼ÄŁi": 4641,
      "Ġ231": 4642,
      "Ã¢lide": 4643,
      "ĠmukÃ¢bele": 4644,
      "ĠzÃ¼lÃ¢l": 4645,
      "dÃ¼z": 4646,
      "ham": 4647,
      "ĠitdÃ¼m": 4648,
      "Ġyerdir": 4649,
      "Ġtaleb": 4650,
      "Ġ236": 4651,
      "ĠimdÃ¢d": 4652,
      "Ġkabr": 4653,
      "ĠhÃ¼m": 4654,
      "ĠsÄ±b": 4655,
      "ĠMas": 4656,
      "ĠÅŀakÃ¢": 4657,
      "ĠYet": 4658,
      "liÄŁi": 4659,
      "ĠinsÃ¢n": 4660,
      "ĠyazÄ±l": 4661,
      "Ġburc": 4662,
      "sÃ»r": 4663,
      "ĠgÃ¼f": 4664,
      "iyan": 4665,
      "dirler": 4666,
      "ĠberÃ¢ber": 4667,
      "Ġmehter": 4668,
      "ĠgÃ¼zÃ®de": 4669,
      "ĠtenÃ¢vÃ¼l": 4670,
      "ĠmÃ¼slimÃ®n": 4671,
      "ĠBÃ¼yÃ¼k": 4672,
      "gÃ¼m": 4673,
      "gis": 4674,
      "ĠkÃ¢met": 4675,
      "Ġdon": 4676,
      "ĠtÃ¼ccÃ¢r": 4677,
      "ĠÅŁor": 4678,
      "Ġbender": 4679,
      "ubÃ¢r": 4680,
      "ĠaÄŁyÃ¢r": 4681,
      "Ġ224": 4682,
      "Ġ315": 4683,
      "ĠpaÅŁanÄ±n": 4684,
      "lÃ®f": 4685,
      "sinin": 4686,
      "Ġolam": 4687,
      "ilmiÅŁ": 4688,
      "ĠÃĤsit": 4689,
      "Ã®regÃ¢h": 4690,
      "ĠaynÄ±": 4691,
      "ĠOldÄ±": 4692,
      "Ġ324": 4693,
      "Ġ326": 4694,
      "ĠgÃ¼mÃ¼ÅŁ": 4695,
      "ĠMuÅŁt": 4696,
      "ime": 4697,
      "ĠÊ¿": 4698,
      "ĠHaf": 4699,
      "ĠAÃ§": 4700,
      "ĠelÃ§i": 4701,
      "uÃ±Ä±": 4702,
      "Ġ261": 4703,
      "ĠhÃ¢ss": 4704,
      "ĠÅŁehirde": 4705,
      "ĠhudÃ»d": 4706,
      "ĠhumÃ¢yÃ»n": 4707,
      "ĠpÃ¢": 4708,
      "ikÃ¢b": 4709,
      "ĠdildÃ¢r": 4710,
      "Ġharb": 4711,
      "ĠdevrÃ¢n": 4712,
      "Ġ298": 4713,
      "ĠcevÃ¢hir": 4714,
      "Ġhavz": 4715,
      "Ġvasf": 4716,
      "dÃ¢l": 4717,
      "va": 4718,
      "Ġileri": 4719,
      "Ġsihr": 4720,
      "ĠsÃ®ne": 4721,
      "Ã¢yim": 4722,
      "âĢ¦âĢ¦.": 4723,
      "ĠbostÃ¢n": 4724,
      "ĠkÄ±ÅŁ": 4725,
      "ĠHic": 4726,
      "ika": 4727,
      "Ġmurabba": 4728,
      "ĠfukarÃ¢": 4729,
      "gÃ¼r": 4730,
      "pey": 4731,
      "Ġsor": 4732,
      "ĠdÃ¢ne": 4733,
      "ildi": 4734,
      "Ã¼rr": 4735,
      "ĠSiv": 4736,
      "Ġalur": 4737,
      "ĠFel": 4738,
      "Ġbuna": 4739,
      "lamÄ±ÅŁ": 4740,
      "ĠAvrup": 4741,
      "An": 4742,
      "SultÃ¢n": 4743,
      "ĠSÃ¢hib": 4744,
      "ĠraÄŁ": 4745,
      "Ġgelmez": 4746,
      "ĠAnad": 4747,
      "Ġ232": 4748,
      "ÃĤD": 4749,
      "Ġyazar": 4750,
      "Ġ344": 4751,
      "Ġmukarrer": 4752,
      "33": 4753,
      "Ġsir": 4754,
      "Ġalan": 4755,
      "Ġ322": 4756,
      "Ġahz": 4757,
      "ĠmeÅŁr": 4758,
      "ĠBeyÃ¢nÃ®": 4759,
      "Ġkasr": 4760,
      "emrillÃ¢h": 4761,
      "ĠDiyÃ¢rbekir": 4762,
      "nig": 4763,
      "Ã¢niyye": 4764,
      "Ã»le": 4765,
      "ĠtÃ»l": 4766,
      "ĠTez": 4767,
      "acaÄŁ": 4768,
      "ĠsÄ±rr": 4769,
      "ĠÅŀems": 4770,
      "Ġdikkat": 4771,
      "ĠÄ°ngiltere": 4772,
      "Ġku": 4773,
      "ĠtÄ±r": 4774,
      "ĠyÃ¢h": 4775,
      "ĠÅŁun": 4776,
      "ĠHus": 4777,
      "Ġbuh": 4778,
      "ĠEdeb": 4779,
      "ĠmÃ¼ker": 4780,
      "eddÃ¢d": 4781,
      "seler": 4782,
      "Ã¢ÅŁÄ±l": 4783,
      "ĠasÄ±r": 4784,
      "ĠibÃ¢det": 4785,
      "ĠÄģ": 4786,
      "erref": 4787,
      "ĠmiyÃ¢n": 4788,
      "Ġnet": 4789,
      "Ġlis": 4790,
      "ĠhÃ¢lÃ®": 4791,
      "ĠemÃ®n": 4792,
      "ĠsevdÃ¢": 4793,
      "ĠcezÃ®r": 4794,
      "ĠmerkÃ»m": 4795,
      "ĠFransÄ±z": 4796,
      "nebiyye": 4797,
      "ĠevkÃ¢f": 4798,
      "Ġbar": 4799,
      "irÃ®n": 4800,
      "ĠvelÃ®": 4801,
      "ĠMÄ±ÅŁ": 4802,
      "Ġfil": 4803,
      "ĠTim": 4804,
      "Ã»su": 4805,
      "Ġ327": 4806,
      "ĠÃ§ekmiÅŁ": 4807,
      "Ġitmege": 4808,
      "ĠBursa": 4809,
      "kur": 4810,
      "evver": 4811,
      "ĠetmeyÃ¼p": 4812,
      "Ġkaddi": 4813,
      "ĠyeÅŁ": 4814,
      "ĠSev": 4815,
      "ĠÅŀevk": 4816,
      "ĠDerd": 4817,
      "Ġmutt": 4818,
      "perver": 4819,
      "nevÃ®": 4820,
      "ĠvÃ¢sÄ±l": 4821,
      "ellÃ®": 4822,
      "Ġzey": 4823,
      "ĠReb": 4824,
      "ĠdÃ¶ne": 4825,
      "Ġ304": 4826,
      "nÃ¢k": 4827,
      "ĠÅŁit": 4828,
      "ĠmesÃ¢cid": 4829,
      "Ġ225": 4830,
      "Ġ216": 4831,
      "ĠmeÅŁÃ¢yih": 4832,
      "Ġ339": 4833,
      "ĠMeÄŁer": 4834,
      "Ã¤n": 4835,
      "Ġliman": 4836,
      "ĠbÃ¢ÄŁÃ§eli": 4837,
      "ĠHÄ±zÄ±r": 4838,
      "Ã§Ä±": 4839,
      "ĠAÅŁ": 4840,
      "Ġpeder": 4841,
      "ĠkarÄ±ÅŁ": 4842,
      "Ġmescid": 4843,
      "Ã¢nÃ®si": 4844,
      "Ġ325": 4845,
      "Ġ333": 4846,
      "Ġmedresesi": 4847,
      "Ġj": 4848,
      "Ã»ka": 4849,
      "elÃ¼m": 4850,
      "Ã¢bir": 4851,
      "ĠaldÄ±": 4852,
      "icek": 4853,
      "Ġseyy": 4854,
      "ĠbÃ¢rÃ¢n": 4855,
      "Ġrefik": 4856,
      "ĠvaÅŁf": 4857,
      "ĠmÃ¼derris": 4858,
      "Ġhul": 4859,
      "ĠbinÃ¢sÄ±dÄ±r": 4860,
      "ĠetdiÄŁimiz": 4861,
      "Ġ302": 4862,
      "Ġkadeh": 4863,
      "ĠicrÃ¢": 4864,
      "gÃ¼ÅŁ": 4865,
      "vÃ®r": 4866,
      "alÄ±m": 4867,
      "ĠHo": 4868,
      "Ġyoktur": 4869,
      "Ġ244": 4870,
      "ĠhazÃ®ne": 4871,
      "ĠvefÃ¢": 4872,
      "ĠamÃ»d": 4873,
      "lÃ¼k": 4874,
      "memiÅŁ": 4875,
      "ĠpÃ¼ÅŁ": 4876,
      "Ġneden": 4877,
      "Ġ181": 4878,
      "ĠyaÅŁum": 4879,
      "ĠEsnÃ¢f": 4880,
      "ĠamÃ¢r": 4881,
      "bahÅŁ": 4882,
      "tib": 4883,
      "Ø¶": 4884,
      "ĠvÃ¢": 4885,
      "ĠVak": 4886,
      "ĠdÃ¼ÅŁÃ¼n": 4887,
      "ĠIrÃ¢k": 4888,
      "ĠRemel": 4889,
      "Ak": 4890,
      "ĠtÃ¼t": 4891,
      "ĠØ¥": 4892,
      "Ġ311": 4893,
      "Ġmeded": 4894,
      "ĠSelmÃ¢n": 4895,
      "ĠJ": 4896,
      "enk": 4897,
      "ĠBÃ¼lbÃ¼l": 4898,
      "ĠhalÃ®fe": 4899,
      "Ġ317": 4900,
      "ĠmÃ¼nakk": 4901,
      "Ġ338": 4902,
      "Ø¬": 4903,
      "ÅŁah": 4904,
      "lerÃ¼n": 4905,
      "ĠBin": 4906,
      "ĠalÃ¢": 4907,
      "Ġ303": 4908,
      "Ġ241": 4909,
      "Ġ243": 4910,
      "Ġsand": 4911,
      "ĠhakÃ®re": 4912,
      "ĠsÃ¼ret": 4913,
      "ĠolduklarÄ±": 4914,
      "Ġsehel": 4915,
      "ĠmuvÃ¢fÄ±k": 4916,
      "ĠAnadolu": 4917,
      "Ġmir": 4918,
      "ĠvÃ¢z": 4919,
      "ĠdehÃ¢n": 4920,
      "ĠrÄ±z": 4921,
      "ĠFÃ¢tih": 4922,
      "Ġdere": 4923,
      "ĠanuÄ±n": 4924,
      "Ê»a": 4925,
      "Ġsenin": 4926,
      "Ġtakr": 4927,
      "ĠMekt": 4928,
      "ĠHalÃ®l": 4929,
      "Ġgenc": 4930,
      "ĠyaÅŁÄ±": 4931,
      "ĠHÃ¼k": 4932,
      "iÅŁÃ¢l": 4933,
      "Ġfik": 4934,
      "ĠfÃ¼rk": 4935,
      "ĠTÃ¢hir": 4936,
      "ĠLisÃ¢n": 4937,
      "Ġtarafda": 4938,
      "Ġvirdi": 4939,
      "Ġperde": 4940,
      "000": 4941,
      "ĠKaradeniz": 4942,
      "ĠbÃ¶lÃ¼k": 4943,
      "ĠhÃ¢c": 4944,
      "ĠcÃ¢y": 4945,
      "ĠMÃ¼ÅŁ": 4946,
      "ĠKÃ¼Ã§Ã¼k": 4947,
      "ĠSit": 4948,
      "Ġfeyz": 4949,
      "ĠdÃ®ger": 4950,
      "ĠnÃ¢me": 4951,
      "Ġtakd": 4952,
      "ĠmÃ¼stak": 4953,
      "ĠpaÅŁaya": 4954,
      "Ġvatan": 4955,
      "ĠidÃ¢r": 4956,
      "Ã¢yÃ¢n": 4957,
      "iÅŁe": 4958,
      "ĠPaÅŁ": 4959,
      "Ġ233": 4960,
      "ĠahlÃ¢k": 4961,
      "Ġheves": 4962,
      "ĠhadÃ®s": 4963,
      "ĠsÃ¼tÃ»n": 4964,
      "kan": 4965,
      "Ġmar": 4966,
      "Ã§Ä±n": 4967,
      "ĠMol": 4968,
      "Ġus": 4969,
      "Ġ321": 4970,
      "ĠBeni": 4971,
      "ĠmemdÃ»h": 4972,
      "ĠAyas": 4973,
      "ĠMecnÃ¼n": 4974,
      "ĠmektÃ»b": 4975,
      "ass": 4976,
      "Ã¢sÃ¢": 4977,
      "Ã¼Ã±le": 4978,
      "Ġ280": 4979,
      "ĠCÃ¼mleden": 4980,
      "Ġgayret": 4981,
      "ĠmestÃ»r": 4982,
      "ĠCihÃ¢n": 4983,
      "kov": 4984,
      "raf": 4985,
      "eys": 4986,
      "ĠeydÃ¼r": 4987,
      "ĠgÃ¶ÄŁ": 4988,
      "Ġkayalar": 4989,
      "ĠDefter": 4990,
      "bih": 4991,
      "gin": 4992,
      "udan": 4993,
      "aret": 4994,
      "ĠÃ§Ã¢h": 4995,
      "ĠZeyn": 4996,
      "ĠAnn": 4997,
      "ĠÅŁehrinde": 4998,
      "ĠÃľÃ§": 4999,
      "ĠGeray": 5000,
      "itekim": 5001,
      "hal": 5002,
      "Ãĸ": 5003,
      "Ã¢num": 5004,
      "iyÃ§Ã¼n": 5005,
      "ĠalÄ±r": 5006,
      "ĠmÃ¼ÅŁerref": 5007,
      "Ã¢nlarÄ±": 5008,
      "Ã§ek": 5009,
      "ĠcÃ¼n": 5010,
      "amm": 5011,
      "ĠzÃ¼m": 5012,
      "Ġdili": 5013,
      "Ġ218": 5014,
      "ĠÄ°sma": 5015,
      "Ġkabul": 5016,
      "ĠdimiÅŁ": 5017,
      "ardÄ±": 5018,
      "ĠBal": 5019,
      "ĠKÃ¢": 5020,
      "ĠSad": 5021,
      "ĠNone": 5022,
      "Ġ329": 5023,
      "Ġiskele": 5024,
      "ĠÄ°shÃ¢k": 5025,
      "ĠhÃ¼cre": 5026,
      "ĠKudÃ¼s": 5027,
      "hÃ¼m": 5028,
      "lÃ¼l": 5029,
      "nek": 5030,
      "enler": 5031,
      "Ġvek": 5032,
      "ĠdÃ¢n": 5033,
      "ebe": 5034,
      "Ġ246": 5035,
      "ĠdÃ¼kkÃ¢nlarÄ±": 5036,
      "rifet": 5037,
      "Ġtayy": 5038,
      "ĠKitÃ¢b": 5039,
      "ata": 5040,
      "Ä°N": 5041,
      "ĠÄ°p": 5042,
      "ĠYÃ»n": 5043,
      "ĠkarÄ±nda": 5044,
      "ĠmÃ¼nÃ¢s": 5045,
      "ĠkÃ¶p": 5046,
      "ĠbÃ¶lÃ¼m": 5047,
      "ehlivÃ¢n": 5048,
      "39": 5049,
      "cÃ®": 5050,
      "ft": 5051,
      "rer": 5052,
      "Ġbele": 5053,
      "ĠyemÃ®n": 5054,
      "ikÃ¢r": 5055,
      "efÃ®": 5056,
      "ĠleÅŁ": 5057,
      "ĠkÄ±rÃ¢": 5058,
      "Ġmeter": 5059,
      "ĠEbu": 5060,
      "ĠkÃ¶ÅŁ": 5061,
      "biye": 5062,
      "min": 5063,
      "eret": 5064,
      "ĠhÄ±f": 5065,
      "ĠÃĤb": 5066,
      "ĠhÃ¢lde": 5067,
      "ĠÙĥ": 5068,
      "ĠmÃ¼nevver": 5069,
      "Ġ337": 5070,
      "Ġ346": 5071,
      "Ġkesb": 5072,
      "ĠtÃ¼rÃ¢b": 5073,
      "ĠÃ¢rÃ¢m": 5074,
      "ĠÅŀiir": 5075,
      "deli": 5076,
      "Ġyukar": 5077,
      "ulmuÅŁ": 5078,
      "ĠGÃ¢yet": 5079,
      "ĠelvÃ¢n": 5080,
      "diklerinde": 5081,
      "Ġsebz": 5082,
      "ĠzirÃ¢": 5083,
      "hayre": 5084,
      "ĠMusul": 5085,
      "ĠVahyÃ®": 5086,
      "38": 5087,
      "pan": 5088,
      "Øµ": 5089,
      "unan": 5090,
      "ĠTok": 5091,
      "acÄ±k": 5092,
      "Ġatlar": 5093,
      "ĠtertÃ®b": 5094,
      "ĠdÃ¼ÅŁdi": 5095,
      "ĠhedÃ¢yÃ¢": 5096,
      "ĠhÃ¢ricinde": 5097,
      "sefe": 5098,
      "Ã¶k": 5099,
      "ĠHÃ¼sn": 5100,
      "ĠfÃ¼r": 5101,
      "Ã¢fir": 5102,
      "ĠoÄŁlan": 5103,
      "ĠÄ¡am": 5104,
      "[(": 5105,
      "tal": 5106,
      "Ġeski": 5107,
      "ĠetmiÅŁtir": 5108,
      "ĠArap": 5109,
      "ĠdendÃ¢n": 5110,
      "ĠrÃ¼ÅŁen": 5111,
      "ĠRÃ»meli": 5112,
      "Kar": 5113,
      "cih": 5114,
      "hÃ¢m": 5115,
      "hÃ®r": 5116,
      "ĠÄ±s": 5117,
      "ĠsabÃ¢h": 5118,
      "ĠAE": 5119,
      "ĠYak": 5120,
      "Ġlet": 5121,
      "ubaÅŁÄ±": 5122,
      "Ġ332": 5123,
      "ĠhavÃ¢le": 5124,
      "ĠÃ¼zerinde": 5125,
      "ĠÄ°smail": 5126,
      "rÃ®f": 5127,
      "ÅŁende": 5128,
      "Ä±ma": 5129,
      "Ġ331": 5130,
      "ĠÙħÙĨ": 5131,
      "ĠbeÃ±zer": 5132,
      "]]": 5133,
      "Ġkeli": 5134,
      "Ã¢hÄ±": 5135,
      "Ġeydir": 5136,
      "Ã®kÃ®": 5137,
      "Ġmezheb": 5138,
      "masun": 5139,
      "ĠkaÃ§an": 5140,
      "ĠUyvar": 5141,
      "taÅŁ": 5142,
      "ĠdÃ¼d": 5143,
      "ĠyatÄ±r": 5144,
      "ĠYevm": 5145,
      "ĠFreng": 5146,
      "ĠcÃ¢num": 5147,
      "ĠZem": 5148,
      "ĠÃ¶yle": 5149,
      "Ġberaber": 5150,
      "Ġ340": 5151,
      "ĠgÃ¼zer": 5152,
      "ĠÅŁems": 5153,
      "ĠbaÄŁr": 5154,
      "ĠMeclis": 5155,
      "Ġhik": 5156,
      "ĠtÃ®ÄŁ": 5157,
      "Ã¢zÄ±l": 5158,
      "Ġ[[(": 5159,
      "ĠÄŁonÃ§e": 5160,
      "ĠyazmÄ±ÅŁ": 5161,
      "Ġbezl": 5162,
      "Ġï´¿ï´¿": 5163,
      "lÃ»b": 5164,
      "ĠkaÅŁÄ±": 5165,
      "Ġhut": 5166,
      "ĠAded": 5167,
      "Ã¢tÃ¼": 5168,
      "Ġdep": 5169,
      "Ġris": 5170,
      "ĠYol": 5171,
      "Ê»i": 5172,
      "ĠeÅŁyÃ¢": 5173,
      "ĠbaÅŁladÄ±": 5174,
      "ĠcenÃ»ba": 5175,
      "ĠzencÃ®r": 5176,
      "ĠEvliyÃ¢": 5177,
      "Ã®ka": 5178,
      "ĠyÄ±ÄŁ": 5179,
      "Ã¼rg": 5180,
      "Ã¢sa": 5181,
      "ĠPÃ®r": 5182,
      "ĠyÃ¼zden": 5183,
      "Ġ242": 5184,
      "ĠkalÊ»asÄ±": 5185,
      "Ġbana": 5186,
      "mev": 5187,
      "ĠdermÃ¢n": 5188,
      "Å«m": 5189,
      "ĠmesÃ¢": 5190,
      "ĠgÃ¶zleri": 5191,
      "Ġmutas": 5192,
      "ĠeyÃ¢letinde": 5193,
      "ĠganÃ®met": 5194,
      "ĠCild": 5195,
      "Az": 5196,
      "rÃ¼z": 5197,
      "etÃ¼": 5198,
      "eft": 5199,
      "Ġolupdur": 5200,
      "ĠatlÄ±": 5201,
      "luÄŁ": 5202,
      "ĠOlur": 5203,
      "ĠsemmÃ»r": 5204,
      "ĠhedÃ¢y": 5205,
      "hak": 5206,
      "yem": 5207,
      "Ġmol": 5208,
      "ayÄ±s": 5209,
      "ĠdervÃ®ÅŁ": 5210,
      "ĠÃĩin": 5211,
      "Ġsade": 5212,
      "Ġdarb": 5213,
      "ĠSÃ¼n": 5214,
      "ĠÃĤlem": 5215,
      "ĠgerÃ¼": 5216,
      "ĠAbdur": 5217,
      "ĠmevlevÃ®": 5218,
      "ĠÃ¢sÃ»de": 5219,
      "ĠmedfÃ¼n": 5220,
      "ĠsayÄ±sÄ±": 5221,
      "EBÄ°L": 5222,
      "40": 5223,
      "ĠnasÄ±l": 5224,
      "ĠMÃ¼f": 5225,
      "ĠuÅŁ": 5226,
      "Ġesv": 5227,
      "ĠLeh": 5228,
      "ĠhÃ¼kÃ¼met": 5229,
      "ÃľRRE": 5230,
      "Ġdak": 5231,
      "ĠniyÃ¢z": 5232,
      "emit": 5233,
      "Ã¼rler": 5234,
      "unca": 5235,
      "Ġaskeriyle": 5236,
      "Ġnazire": 5237,
      "ĠÅŁerÃ®fin": 5238,
      "cÄ±lar": 5239,
      "ĠÄ°bn": 5240,
      "ĠderyÃ¢sÄ±": 5241,
      "ĠÃ§emenzÃ¢r": 5242,
      "ulemÃ¢": 5243,
      "ĠvÃ¢cib": 5244,
      "Ġink": 5245,
      "ĠilÃ¢": 5246,
      "Ġzerd": 5247,
      "Ġfitne": 5248,
      "EBÄ°LÃľRRE": 5249,
      "]:": 5250,
      "}.": 5251,
      "ĠQ": 5252,
      "Ġip": 5253,
      "ĠMerh": 5254,
      "Ġ347": 5255,
      "jder": 5256,
      "Ġha": 5257,
      "esiz": 5258,
      "ĠsenÃ¼Ã±": 5259,
      "Ġgeldikde": 5260,
      "ĠgÃ¶rdÃ¼k": 5261,
      "ĠtevhÃ®d": 5262,
      "Ġsemt": 5263,
      "ĠKostan": 5264,
      "ĠkuruÅŁdur": 5265,
      "affak": 5266,
      "Ã¢tÄ±mÃ¼stak": 5267,
      "ĠbÃ¢g": 5268,
      "ĠMÃ¢h": 5269,
      "ĠHul": 5270,
      "ĠKor": 5271,
      "ĠÃ§am": 5272,
      "iku": 5273,
      "ĠrÃ»ÅŁen": 5274,
      "Ġders": 5275,
      "ĠfenÃ¢": 5276,
      "Ġkahv": 5277,
      "fir": 5278,
      "ĠvÃ¢ÅŁÄ±l": 5279,
      "Ġsecc": 5280,
      "Ġcef": 5281,
      "ĠBos": 5282,
      "ĠsarÄ±": 5283,
      "Ġmurg": 5284,
      "ĠoldukÃ§a": 5285,
      "Ġihtiy": 5286,
      "ĠevliyÃ¢": 5287,
      "cen": 5288,
      "zÃ»": 5289,
      "ĠamÃ¢n": 5290,
      "ĠnÄ±s": 5291,
      "ahim": 5292,
      "rek": 5293,
      "Ġfes": 5294,
      "ĠfezÃ¢": 5295,
      "Ġelden": 5296,
      "orb": 5297,
      "ĠAnÄ±": 5298,
      "ĠgeÃ§en": 5299,
      "ĠhilÃ¢fet": 5300,
      "ĠlivÃ¢": 5301,
      "Ã®g": 5302,
      "Ġkahr": 5303,
      "Ġeli": 5304,
      "Ġciger": 5305,
      "ĠSÃ®n": 5306,
      "ĠSÃ¶z": 5307,
      "Ġeylediler": 5308,
      "ifesi": 5309,
      "ĠAlt": 5310,
      "ĠhÃ¢nedÃ¢n": 5311,
      "ĠØ§ÙĦÙĦÙĩ": 5312,
      "ĠmÃ¼bt": 5313,
      "Ġbayrak": 5314,
      "Ã¼le": 5315,
      "ĠMih": 5316,
      "ĠÃ§ak": 5317,
      "ebb": 5318,
      "dÄ±rÄ±m": 5319,
      "Äģá¹£": 5320,
      "idÃ®n": 5321,
      "Ä±baÅŁÄ±": 5322,
      "ĠrevÃ¢ne": 5323,
      "Ġdehr": 5324,
      "Ġkr": 5325,
      "Ġselef": 5326,
      "emet": 5327,
      "ĠHÃ¢fÄ±z": 5328,
      "Ġpalan": 5329,
      "ĠRebÃ®": 5330,
      "Ã¢vÃ¢n": 5331,
      "ĠartÄ±k": 5332,
      "ĠBundan": 5333,
      "ĠkÃ¢dir": 5334,
      "ĠhayrÃ¢t": 5335,
      "uda": 5336,
      "ĠbÃ¼n": 5337,
      "Ġto": 5338,
      "ĠMis": 5339,
      "ĠTokuz": 5340,
      "uzu": 5341,
      "Ã®sinde": 5342,
      "ĠyanÄ±na": 5343,
      "ĠkazÃ¢dÄ±r": 5344,
      "ĠhÃ¢b": 5345,
      "Ġgide": 5346,
      "ĠdÄ«": 5347,
      "ĠMaÄŁ": 5348,
      "azÃ®z": 5349,
      "ese": 5350,
      "ĠKendi": 5351,
      "Ġkarar": 5352,
      "Ġ271": 5353,
      "ĠhÃ¢neli": 5354,
      "Ġbelki": 5355,
      "Ġehli": 5356,
      "hÃ¢nesi": 5357,
      "Ã¼stem": 5358,
      "ĠhÃ¢le": 5359,
      "Ä±nÄ±z": 5360,
      "dise": 5361,
      "azl": 5362,
      "ĠiÅŁte": 5363,
      "ĠkazÃ¢sÄ±": 5364,
      "ĠÃ¢yÃ®n": 5365,
      "ĠÃİsÃ¢": 5366,
      "Ġkamer": 5367,
      "ĠDÃ¢vÃ»d": 5368,
      "ĠkÃ¢h": 5369,
      "iÅŁte": 5370,
      "Ã¢kÄ±": 5371,
      "ĠGarb": 5372,
      "Ġistey": 5373,
      "ĠemÃ®r": 5374,
      "ĠmaÊ»mÃ»r": 5375,
      "37": 5376,
      "kav": 5377,
      "ĠbÃ¢kÃ®": 5378,
      "ĠhÃ¢y": 5379,
      "ĠnÃ¢l": 5380,
      "izÃ¢de": 5381,
      "ĠDÃ¼r": 5382,
      "ĠreÅŁk": 5383,
      "ĠgÃ¶zi": 5384,
      "ĠCemÃ®": 5385,
      "ĠruhsÃ¢r": 5386,
      "ĠdegÃ¼ldÃ¼r": 5387,
      "masa": 5388,
      "ĠÅŁÃ¶hret": 5389,
      "ihÃ®": 5390,
      "ĠserdÃ¢rÄ±": 5391,
      "ĠgÃ¶rdÃ¼": 5392,
      "Ã¢cÄ±": 5393,
      "ĠBasra": 5394,
      "Ay": 5395,
      "ileyh": 5396,
      "Ã¢zil": 5397,
      "Ġserhad": 5398,
      "alarÄ±na": 5399,
      "Ġbilir": 5400,
      "Ġmevl": 5401,
      "ĠBaÃ±a": 5402,
      "ĠseyÃ¢hat": 5403,
      "dÄ±kda": 5404,
      "ĠhandakÄ±": 5405,
      "ĠmezbÃ»rda": 5406,
      "Ġnumar": 5407,
      "sabÃ¢h": 5408,
      "zi": 5409,
      "ĠadÄ±": 5410,
      "ĠzÃ¢hid": 5411,
      "ĠNis": 5412,
      "ĠÅŀeb": 5413,
      "Ġhergiz": 5414,
      "ĠmecmÃ»": 5415,
      "ĠmÃ¼ddet": 5416,
      "ĠRamazÃ¢n": 5417,
      "EBÄ°LÃľRREÅŀ": 5418,
      "zem": 5419,
      "deki": 5420,
      "Ä°slÃ¢m": 5421,
      "Ã¢yi": 5422,
      "ĠpiÅŁ": 5423,
      "makÃ¢m": 5424,
      "ĠAbaza": 5425,
      "ayÄ±t": 5426,
      "ĠÅŁerÃ®fe": 5427,
      "ĠmukaddemÃ¢": 5428,
      "ĠnÃ¼zÃ»l": 5429,
      "ÅŁek": 5430,
      "ayb": 5431,
      "Ġard": 5432,
      "ĠØ±": 5433,
      "ĠdÃ¼ÅŁmen": 5434,
      "Ġ345": 5435,
      "ĠÃĸl": 5436,
      "Ġkiremit": 5437,
      "zeÃ±": 5438,
      "ĠhÄ±fz": 5439,
      "Ã¼Ê»l": 5440,
      "ĠgÃ¼nden": 5441,
      "ĠAlman": 5442,
      "ĠmesÃ®regÃ¢h": 5443,
      "Ã¼Ã±i": 5444,
      "Ġtahk": 5445,
      "ÃĤT": 5446,
      "Ġ343": 5447,
      "ĠiklÃ®m": 5448,
      "uÄŁu": 5449,
      "ĠmahlÃ»k": 5450,
      "ĠDemir": 5451,
      "ĠSivas": 5452,
      "tezÃ¢": 5453,
      "ĠâĢĶ": 5454,
      "Ġbor": 5455,
      "Ġsine": 5456,
      "Ġalem": 5457,
      "Ã¢tÄ±ndan": 5458,
      "ĠTah": 5459,
      "ĠDa": 5460,
      "Ġitsem": 5461,
      "ĠSÃ¼leyman": 5462,
      "Ġbaht": 5463,
      "ĠÄ°brahim": 5464,
      "ĠeÅŁkÃ¢l": 5465,
      "odos": 5466,
      "ĠÄ°htÃ¢r": 5467,
      "eddÃ¢dÃ®": 5468,
      "hic": 5469,
      "arÃ¢": 5470,
      "eki": 5471,
      "ĠEÅŁk": 5472,
      "ibÃ¢s": 5473,
      "ĠetdÃ¼kde": 5474,
      "ĠeyledÃ¼m": 5475,
      "ĠaÄŁalarÄ±": 5476,
      "ĠmÃ¼lÃ¢z": 5477,
      "Ġeyleyen": 5478,
      "cer": 5479,
      "mÃ¼r": 5480,
      "par": 5481,
      "©r": 5482,
      "Ú©": 5483,
      "ĠcÃ¼vÃ¢n": 5484,
      "ĠKir": 5485,
      "ĠsenÃ¼nÃ¼": 5486,
      "Ġmahf": 5487,
      "ĠÅŁÃ¢hrÃ¢h": 5488,
      "Ġ341": 5489,
      "ĠneferÃ¢tlarÄ±": 5490,
      "ĠkendÃ¼ye": 5491,
      "ĠneÅŁr": 5492,
      "ĠRevÃ¢nÃ®": 5493,
      "ĠGÃ¶nÃ¼l": 5494,
      "Ar": 5495,
      "Ä±cak": 5496,
      "ĠkÃ¢b": 5497,
      "ĠtaÄŁ": 5498,
      "asar": 5499,
      "Ã¼phan": 5500,
      "larÄ±dÄ±r": 5501,
      "Ġyerleri": 5502,
      "ĠdÃ®vÃ¢ne": 5503,
      "ĠÅŁÃ¢hÃ®": 5504,
      "Ġ336": 5505,
      "ĠTÃ¼rkÃ§e": 5506,
      "ĠEkrÃ¢d": 5507,
      "ĠÄ°skenderiyye": 5508,
      "Ġá¸¤Ä±á¸": 5509,
      "ije": 5510,
      "ind": 5511,
      "aÅŁÄ±l": 5512,
      "Ã¢sÄ±yla": 5513,
      "abilir": 5514,
      "ĠdergÃ¢h": 5515,
      "ĠAbone": 5516,
      "Ġ335": 5517,
      "Ġrevende": 5518,
      "Ġtavs": 5519,
      "ĠkebÃ¢b": 5520,
      "Ġá¸¤Ä±á¸©r": 5521,
      "],": 5522,
      "fik": 5523,
      "inÃ¢yet": 5524,
      "ĠMi": 5525,
      "Ã¼mme": 5526,
      "Ġzahm": 5527,
      "ĠMuhib": 5528,
      "ĠcivÃ¢r": 5529,
      "ykÃ¼n": 5530,
      "ĠkÃ¢bil": 5531,
      "ĠSÃ¢lih": 5532,
      "ĠfÃ¼t": 5533,
      "ĠmuhÃ¢l": 5534,
      "Ġiderler": 5535,
      "ĠetrÃ¢fÄ±nda": 5536,
      "ĠziyÃ¢fet": 5537,
      "ĠnamÃ¢z": 5538,
      "45": 5539,
      "vÃ¢m": 5540,
      "zur": 5541,
      "ÉĻ": 5542,
      "ĠvÃ¢lÃ®": 5543,
      "Ġelif": 5544,
      "ĠHuk": 5545,
      "ĠÃ§Ã¶l": 5546,
      "ĠTaÅŁ": 5547,
      "ĠRÃ¼stem": 5548,
      "ĠdiyÃ¢rda": 5549,
      "Ġsayd": 5550,
      "Ġhadd": 5551,
      "ĠmebnÃ®": 5552,
      "ĠAvrupa": 5553,
      "ĠseccÃ¢de": 5554,
      "ĪĴ)": 5555,
      "Ġsec": 5556,
      "Ġyum": 5557,
      "Ã¼nÃ»n": 5558,
      "ĠÅŁehÃ¢det": 5559,
      "Ġyerler": 5560,
      "Ġecel": 5561,
      "ĠdizdÃ¢rÄ±": 5562,
      "ĠkasabasÄ±": 5563,
      "rin": 5564,
      "Ġsik": 5565,
      "ĠdÃ¢l": 5566,
      "ĠHac": 5567,
      "eylÃ¢n": 5568,
      "ĠKes": 5569,
      "ĠsaÃ§": 5570,
      "ĠmÃ¼ÅŁkil": 5571,
      "Ġresm": 5572,
      "Ġoyn": 5573,
      "ĠTemmuz": 5574,
      "65": 5575,
      "AN": 5576,
      "seb": 5577,
      "ĠvÃ¢sÄ±": 5578,
      "ĠhÄ±y": 5579,
      "allÃ¢": 5580,
      "ĠcÃ¼l": 5581,
      "ĠRÃ¢bi": 5582,
      "ĠBugÃ¼n": 5583,
      "ĠbilÃ¢": 5584,
      "Ġberg": 5585,
      "ĠkÄ±yÃ¢met": 5586,
      "Ġmast": 5587,
      "ĠmuttasÄ±l": 5588,
      "ĠAnniÃ§Ã¼n": 5589,
      "mÃ¢t": 5590,
      "naz": 5591,
      "Ã¼dÃ¼r": 5592,
      "Ġkut": 5593,
      "lete": 5594,
      "Ġgon": 5595,
      "envÃ¢r": 5596,
      "ĠtÄ±f": 5597,
      "ĠnÃ¢s": 5598,
      "aÅŁup": 5599,
      "ĠalmÄ±ÅŁ": 5600,
      "ĠFen": 5601,
      "alara": 5602,
      "Ġhayat": 5603,
      "Ġ348": 5604,
      "ĠaÃ§up": 5605,
      "ÅŁÄ±n": 5606,
      "ĠkeÃ§": 5607,
      "Ġtal": 5608,
      "iyÄģ": 5609,
      "ĠKral": 5610,
      "ĠfÃ¢hire": 5611,
      "ĠrÄ±h": 5612,
      "Ġeylemek": 5613,
      "iyyeyi": 5614,
      "ĠhanÃ§er": 5615,
      "Ä±dmet": 5616,
      "nav": 5617,
      "Ġkel": 5618,
      "Ġgal": 5619,
      "ĠTÃ¢c": 5620,
      "yemez": 5621,
      "ĠyazÄ±lar": 5622,
      "ĠCÃ¢nib": 5623,
      "ĠAbdÃ¼laziz": 5624,
      "ĠBelgrad": 5625,
      "ĠSarÃ¢y": 5626,
      "ilÄģtÅ«n": 5627,
      "ĠMÄ±ÅŁr": 5628,
      "kÃ®": 5629,
      "ĠnedÃ¼r": 5630,
      "ĠSak": 5631,
      "ĠdeÅŁ": 5632,
      "ĠVaÅŁ": 5633,
      "ĠÄ°d": 5634,
      "ĠrÃ¢yih": 5635,
      "Ġá¸«as": 5636,
      "ĠMuharrem": 5637,
      "ĠyÃ¢rÃ¢n": 5638,
      "Ã®ÅŁÃ¢n": 5639,
      "Ġintih": 5640,
      "ĠKÄ±rk": 5641,
      "beti": 5642,
      "Ã®den": 5643,
      "ĠHÃ¢s": 5644,
      "ĠNÃ¼sh": 5645,
      "uban": 5646,
      "Ġtabur": 5647,
      "ĠsebÃ®l": 5648,
      "ĠulÃ»m": 5649,
      "ĠnihÃ¢l": 5650,
      "ned": 5651,
      "ala": 5652,
      "ĠcÃ¼y": 5653,
      "azÃ¢de": 5654,
      "Ã¢sÄ±nÄ±n": 5655,
      "Ġedilen": 5656,
      "tihÃ¢d": 5657,
      "ĠgeyÃ¼p": 5658,
      "ĠserÃ¢med": 5659,
      "ĠÅŁakÄ±n": 5660,
      "cÃ¼mle": 5661,
      "lus": 5662,
      "mÃ»n": 5663,
      "usl": 5664,
      "ĠsÄ±k": 5665,
      "ĠcÃ¢r": 5666,
      "ĠcinÃ¢n": 5667,
      "dana": 5668,
      "Ġverdi": 5669,
      "ĠØµ": 5670,
      "Ġsule": 5671,
      "Ġsaltanat": 5672,
      "cÄ±k": 5673,
      "ĠHud": 5674,
      "iyi": 5675,
      "ĠpÃ®ÅŁ": 5676,
      "Ġdiller": 5677,
      "Ã®lÃ»n": 5678,
      "alarda": 5679,
      "Ġbunu": 5680,
      "Ġcihet": 5681,
      "ĠmeÄŁer": 5682,
      "arrÄ±f": 5683,
      "Ġolmasun": 5684,
      "ĠzebÃ¢n": 5685,
      "ĠpÃ¼ÅŁte": 5686,
      "Ä±rÄ±": 5687,
      "imde": 5688,
      "ederi": 5689,
      "ĠYezÃ®d": 5690,
      "ĠanlarÄ±n": 5691,
      "ĠiÅŁit": 5692,
      "Ġkenar": 5693,
      "Ã¼her": 5694,
      "Ġ342": 5695,
      "ĠpÃ®rleri": 5696,
      "ĠkÄ±zÄ±l": 5697,
      "ĠzÃ®bÃ¢": 5698,
      "ĠyeÅŁil": 5699,
      "inÃ¼nÃ¼": 5700,
      "Ġcirmi": 5701,
      "ĠAmr": 5702,
      "ĠdeÃ±": 5703,
      "ĠNig": 5704,
      "ĠcÃ¢nibi": 5705,
      "ĠpeymÃ¢n": 5706,
      "lamak": 5707,
      "ĠÄŀam": 5708,
      "kÃ»lÃ¢t": 5709,
      "bÃ¢d": 5710,
      "gili": 5711,
      "ĠhÃ®d": 5712,
      "aldan": 5713,
      "lardÄ±": 5714,
      "ĠBed": 5715,
      "ĠSil": 5716,
      "ĠÃ§oÄŁ": 5717,
      "Äģde": 5718,
      "Ġri": 5719,
      "ĠYay": 5720,
      "Ġgelse": 5721,
      "Å«l": 5722,
      "ÄģnÄ«": 5723,
      "ÃĤN": 5724,
      "Ġ334": 5725,
      "Ġtaby": 5726,
      "Ġamber": 5727,
      "ĠitmiÅŁdÃ¼r": 5728,
      "ĠkeÅŁf": 5729,
      "ĠcÃ¢miÊ»i": 5730,
      "tu": 5731,
      "ĠvÃ¢si": 5732,
      "alum": 5733,
      "ilÃ¼p": 5734,
      "ĠTav": 5735,
      "Ġonu": 5736,
      "Ġvakf": 5737,
      "ĠdÃ®vÃ¢rÄ±": 5738,
      "ĠyalÃ§Ä±n": 5739,
      "Ġyukaru": 5740,
      "iler": 5741,
      "Ø²": 5742,
      "ĠnÃ¼ÅŁ": 5743,
      "Ã¢bÄ±k": 5744,
      "ĠEger": 5745,
      "Ġrahm": 5746,
      "ĠDaÄŁÄ±": 5747,
      "Ã¢fa": 5748,
      "ĠtaÅŁÄ±": 5749,
      "imizin": 5750,
      "ĠpervÃ¢ne": 5751,
      "Ġ354": 5752,
      "ĠBunlarÄ±n": 5753,
      "Ġgiderler": 5754,
      "ĠtÃ¢bi": 5755,
      "ĠDevr": 5756,
      "ĠÄ°zmir": 5757,
      "Ġcinsi": 5758,
      "mam": 5759,
      "muh": 5760,
      "Ġtefer": 5761,
      "ĠÅŁubh": 5762,
      "ĠNÃ¢z": 5763,
      "ĠÙĤ": 5764,
      "Ã®kat": 5765,
      "ĠencÃ¼m": 5766,
      "ĠsemÃ¢": 5767,
      "ĠdaÄŁlarÄ±": 5768,
      "Ġorta": 5769,
      "ĠKanije": 5770,
      "ĠganÃ¢": 5771,
      "Ġaleyhi": 5772,
      "dÃ¼nÃ¼": 5773,
      "mur": 5774,
      "taz": 5775,
      "Ã¢it": 5776,
      "ĠkÃ¢ÄŁ": 5777,
      "ĠkÃ¼rk": 5778,
      "deme": 5779,
      "ĠsÃ¢l": 5780,
      "ĠitmÃ¢m": 5781,
      "Ġeline": 5782,
      "asÄ±yla": 5783,
      "ĠazÃ®z": 5784,
      "iyyÃ¢t": 5785,
      "Ã¼dar": 5786,
      "ĠkÄ±lÄ±n": 5787,
      "Ġorman": 5788,
      "Ġmuvaffak": 5789,
      "ĠÄ°btidÃ¢": 5790,
      "ĠbÄ±raÄŁ": 5791,
      "ĠsÃ¶yler": 5792,
      "ĠÃ¼n": 5793,
      "ĠhÃ»r": 5794,
      "ĠBeÃ§": 5795,
      "Ã¢kiyÃ¢": 5796,
      "ĠTef": 5797,
      "ĠkalÄ±r": 5798,
      "ĠÃĩÃ®n": 5799,
      "ĠnÃ¢zil": 5800,
      "ĠÃ¶nem": 5801,
      "ĠmuhtÃ¢c": 5802,
      "ohsa": 5803,
      "Ġnokta": 5804,
      "ĠsÄ±byÃ¢n": 5805,
      "ĠmeÅŁrÃ»b": 5806,
      "ĠnÄ±sf": 5807,
      "ÄŁinden": 5808,
      "meÅŁ": 5809,
      "ĠÃ§eng": 5810,
      "ĠTut": 5811,
      "Äģá¸³": 5812,
      "umu": 5813,
      "Ä±ÄŁÄ±nÄ±": 5814,
      "ÙĬÙĦ": 5815,
      "ĠHaydar": 5816,
      "ĠdÄ±raht": 5817,
      "ĠMuÅŁtafÃ¢": 5818,
      "Naz": 5819,
      "hÃ®": 5820,
      "Ġkuyu": 5821,
      "ilmesi": 5822,
      "ĠSadÄ±ra": 5823,
      "Ġpin": 5824,
      "Ġkalan": 5825,
      "ĠolmaÄŁa": 5826,
      "ĠolmamÄ±ÅŁ": 5827,
      "Ġbenden": 5828,
      "ĠgazÃ¢": 5829,
      "ĠcebehÃ¢ne": 5830,
      "ĠMecnÃ»n": 5831,
      "karÃ¢r": 5832,
      "ĠnÃ¼mÃ¢yÃ¢n": 5833,
      "ĠSaf": 5834,
      "Ã®rÃ¢n": 5835,
      "ĠDest": 5836,
      "ĠiÃ§i": 5837,
      "Ġkavim": 5838,
      "ĠcihÃ¢nÄ±": 5839,
      "ĠaÃ§Ä±l": 5840,
      "ĠnakÃ®b": 5841,
      "ĠBulgar": 5842,
      "ĠkÃ¢ÅŁif": 5843,
      "ĠÃ¢ÅŁÄ±k": 5844,
      "ĠtoÄŁ": 5845,
      "Ġpes": 5846,
      "Ġetdir": 5847,
      "duÃ±": 5848,
      "ĠFil": 5849,
      "Ġlah": 5850,
      "ĠOk": 5851,
      "leyÃ¼p": 5852,
      "ĠaltÄ±na": 5853,
      "Ġistemez": 5854,
      "ĠeÅŁkÃ¼m": 5855,
      "kÃ¢nÄ±": 5856,
      "Ġoc": 5857,
      "ĠEc": 5858,
      "izi": 5859,
      "Ġderece": 5860,
      "ĠgÃ¶rse": 5861,
      "ĠÃ¢yende": 5862,
      "ĠmÃ¼kem": 5863,
      "istÃ¢nÄ±": 5864,
      "ĠtulÃ»": 5865,
      "ĠMaskov": 5866,
      "ĠmutasarrÄ±f": 5867,
      "ĠhÃ®dmet": 5868,
      ").....": 5869,
      "lin": 5870,
      "teri": 5871,
      "ceÄŁi": 5872,
      "tep": 5873,
      "Ä±nÄ±p": 5874,
      "ĠiÅŁig": 5875,
      "Ġmezb": 5876,
      "Ġ330": 5877,
      "ĠsÃ¼rÃ¼p": 5878,
      "Ġnakd": 5879,
      "dÃ»r": 5880,
      "Ġkeh": 5881,
      "Ġces": 5882,
      "ĠBunda": 5883,
      "Ã¼rÃ¼": 5884,
      "azel": 5885,
      "ĠbuÄŁ": 5886,
      "ĠmÃ¼sÃ¢f": 5887,
      "Ġsenden": 5888,
      "Ġá¸²": 5889,
      "Ġederiz": 5890,
      "ĠaÄŁa": 5891,
      "Ġedelim": 5892,
      "ĠHakkÄ±nda": 5893,
      "ĠolmaÄŁla": 5894,
      "ĠtedbÃ®r": 5895,
      "Ġsulh": 5896,
      "ĠFelsefe": 5897,
      "mÃ®l": 5898,
      "yÃ¢b": 5899,
      "á¼": 5900,
      "ĠMÃ¼r": 5901,
      "Ġzek": 5902,
      "Ġzafer": 5903,
      "Ġpap": 5904,
      "aban": 5905,
      "ĠDim": 5906,
      "alarÄ±ndan": 5907,
      "Ġbeyit": 5908,
      "ĠdÃ¼ÅŁer": 5909,
      "Ġtabl": 5910,
      "ĠHÃ¼seyn": 5911,
      "Ġcisir": 5912,
      "Ġuzun": 5913,
      "bÃ¢t": 5914,
      "dedir": 5915,
      "ĠhÃ¢di": 5916,
      "Ġsuh": 5917,
      "ĠKey": 5918,
      "ĠEÄŁ": 5919,
      "ĠkalmadÄ±": 5920,
      "Ġbedeli": 5921,
      "ĠbizzÃ¢t": 5922,
      "ĠmeÅŁg": 5923,
      "ĠmÃ¼ÅŁk": 5924,
      "Ġfazl": 5925,
      "hisÃ¢b": 5926,
      "Ġyel": 5927,
      "ebÃ¢n": 5928,
      "ĠrÃ¢st": 5929,
      "durup": 5930,
      "edde": 5931,
      "ĠlÃ¢yÄ±k": 5932,
      "ĠzÃ¼lfi": 5933,
      "ĠoldÄ±lar": 5934,
      "ĠÅŁanem": 5935,
      "dukÃ§a": 5936,
      "ĠsadÃ¢": 5937,
      "ÄģlÄ«": 5938,
      "ĠgÃ¶tÃ¼rÃ¼p": 5939,
      "ĠKonya": 5940,
      "ĠÄ°htÃ¢rÃ¢t": 5941,
      "rine": 5942,
      "ule": 5943,
      "ÅŁu": 5944,
      "ĠhÃ¢me": 5945,
      "Ã¢ma": 5946,
      "ĠÃĩÄ±k": 5947,
      "ĠÅŁerÃ®fleri": 5948,
      "Ġurur": 5949,
      "Ġkaynak": 5950,
      "ĠnihÃ¢n": 5951,
      "Ã§ok": 5952,
      "ĠBinÃ¢": 5953,
      "ĠrÃ¢z": 5954,
      "ĠÅŀÃ®r": 5955,
      "ĠetdÃ¼ÄŁi": 5956,
      "Ã®mÃ®": 5957,
      "Ġkif": 5958,
      "ĠZÃ¢t": 5959,
      "ĠmemÃ¢lik": 5960,
      "ĠErzur": 5961,
      "ĠmÃ¼staÄŁ": 5962,
      "ĠbÃ¼lend": 5963,
      "aá¹Ń": 5964,
      "kÃ»ÅŁe": 5965,
      "Ã®ye": 5966,
      "Ã®li": 5967,
      "ĠhÃ»b": 5968,
      "illi": 5969,
      "elif": 5970,
      "ĠKaÅŁ": 5971,
      "Ġellerinde": 5972,
      "Ġtarafdan": 5973,
      "ĠÃ¢demi": 5974,
      "ĠkÄ±lÄ±": 5975,
      "Ġederlerdi": 5976,
      "Ġezel": 5977,
      "Ġbirbirlerine": 5978,
      "ĠBitlÃ®s": 5979,
      "None": 5980,
      "eddin": 5981,
      "iyyeden": 5982,
      "ÄģrÄ«": 5983,
      "ĠIs": 5984,
      "ĠrÃ¢hat": 5985,
      "ÄĢ": 5986,
      "led": 5987,
      "Ã¢yeri": 5988,
      "ĠÃ§aÄŁ": 5989,
      "izÃ¢": 5990,
      "Ġrub": 5991,
      "ĠCer": 5992,
      "ĠilÃ¼n": 5993,
      "ĠÙĨ": 5994,
      "ĠidÃ¼m": 5995,
      "ĠÃ¢demin": 5996,
      "ĠmÃ¼cevher": 5997,
      "ĠServ": 5998,
      "Ġhurde": 5999,
      "ĠdÃ¼nyÃ¢da": 6000,
      "Ġhafta": 6001,
      "Ġkork": 6002,
      "Ġhidmet": 6003,
      "ĠmÃ¼kemmel": 6004,
      "kire": 6005,
      "ĠsÃ¼": 6006,
      "ĠnÃ¼k": 6007,
      "Ġderv": 6008,
      "ĠÃĤs": 6009,
      "ĠÃ¼Ã§Ã¼ncÃ¼": 6010,
      "Ġmeden": 6011,
      "ĠumÃ»r": 6012,
      "Ġortaya": 6013,
      "ĠÃľskÃ¼dar": 6014,
      "ĠMor": 6015,
      "ĠalÃ§ak": 6016,
      "ĠgÃ¼ndÃ¼z": 6017,
      "Ġhalde": 6018,
      "ĠyazÄ±lan": 6019,
      "Ġsarf": 6020,
      "Ġtesm": 6021,
      "Ġnefs": 6022,
      "Ġifade": 6023,
      "ĠdolayÄ±": 6024,
      "emed": 6025,
      "tif": 6026,
      "ĠÃ§adÄ±r": 6027,
      "Ġriv": 6028,
      "ĠmuÅŁ": 6029,
      "ĠbunlarÄ±": 6030,
      "Ġgerd": 6031,
      "terem": 6032,
      "Ġetdikleri": 6033,
      "Ġbuyurdular": 6034,
      "ĠtÃ¼rlÃ¼": 6035,
      "ĠderyÃ¢ya": 6036,
      "ĠmedfÃ¼ndur": 6037,
      "eme": 6038,
      "Ġsim": 6039,
      "ĠMal": 6040,
      "ĠKav": 6041,
      "Ġolmay": 6042,
      "ĠAnda": 6043,
      "ĠtaÃ±": 6044,
      "Ġikisi": 6045,
      "gerdÃ¢n": 6046,
      "ĠDÃ¶st": 6047,
      "ĠsÄ±ÄŁÄ±r": 6048,
      "ĠkÃ¼heylÃ¢n": 6049,
      "Ã¼lislÃ¢m": 6050,
      "Ã¼rgon": 6051,
      "vec": 6052,
      "ĠÅŁÃ¢n": 6053,
      "ĠcÃ¼dÃ¢": 6054,
      "day": 6055,
      "revÃ¢n": 6056,
      "ĠGÃ¼z": 6057,
      "ĠÃĤteÅŁ": 6058,
      "Ġyerinde": 6059,
      "ĠmenÃ¢zil": 6060,
      "ĠzerrÃ®n": 6061,
      "Ã»fÃ¢n": 6062,
      "Ġmahallinde": 6063,
      "ĠyÃ¢hÃ»d": 6064,
      "gun": 6065,
      "ĠgÃ¢": 6066,
      "ĠdÃ¼k": 6067,
      "ĠÅŁo": 6068,
      "Ã¢tÄ±na": 6069,
      "ĠDir": 6070,
      "ĠGed": 6071,
      "sitÃ¢n": 6072,
      "ĠcelÃ®le": 6073,
      "ET": 6074,
      "ĠÂ": 6075,
      "Ġgiden": 6076,
      "Ġsab": 6077,
      "ilÃ¢f": 6078,
      "Ġbirine": 6079,
      "ĠKev": 6080,
      "atin": 6081,
      "ĠNÃ»r": 6082,
      "abe": 6083,
      "Ã¢fil": 6084,
      "avza": 6085,
      "Ġlaf": 6086,
      "ĠolanlarÄ±n": 6087,
      "ĠkurÃ¢larÄ±": 6088,
      "ĠÄĢ": 6089,
      "ĠCennet": 6090,
      "Ø³Øª": 6091,
      "ĠselÃ¢tÃ®n": 6092,
      "Ġnisbet": 6093,
      "ĠAfgan": 6094,
      "Ġmeteris": 6095,
      "KI": 6096,
      "talÄ±k": 6097,
      "ĠMÃ¼t": 6098,
      "ellÃ¢": 6099,
      "Ġzu": 6100,
      "Ġrad": 6101,
      "Ã¢leme": 6102,
      "ĠsenevÃ®": 6103,
      "Ø§Ø±": 6104,
      "leti": 6105,
      "ĠmÃ¼tek": 6106,
      "ĠvilÃ¢yeti": 6107,
      "ĠizhÃ¢r": 6108,
      "ĠTimur": 6109,
      "kasÄ±": 6110,
      "Ġocak": 6111,
      "Ã¢la": 6112,
      "ĠKat": 6113,
      "ĠSem": 6114,
      "Ã¢sÄ±nÄ±": 6115,
      "ĠmÃ¼dev": 6116,
      "ĠkadÄ±n": 6117,
      "ĠahkÃ¢m": 6118,
      "ĠkÃ¼ffÃ¢rÄ±": 6119,
      "Ġbalyemez": 6120,
      "ĠmÃ¼dÃ¢m": 6121,
      "ĠkÄ±ymet": 6122,
      "ĠÃľstÃ¼rgon": 6123,
      "ĠBosna": 6124,
      "Bir": 6125,
      "ĠkoÅŁ": 6126,
      "inÃ¼n": 6127,
      "Ã»Ã±": 6128,
      "ĠHez": 6129,
      "asf": 6130,
      "uÃ±la": 6131,
      "ĠistÃ®l": 6132,
      "ĠeÅŁrÃ¢f": 6133,
      "Ġterakk": 6134,
      "ĠbeÃ®z": 6135,
      "ĠArnav": 6136,
      "Ġpeygamber": 6137,
      "ĠvÃ¼cÃ»da": 6138,
      "Ġavdet": 6139,
      "ĠYÄ±ldÄ±rÄ±m": 6140,
      "aá¹£": 6141,
      "nÃ»r": 6142,
      "Ġsohbet": 6143,
      "ĠCÃ¢m": 6144,
      "alarÄ±nda": 6145,
      "ĠillÃ¢": 6146,
      "ĠdeÄŁer": 6147,
      "ĠlebÃ¼n": 6148,
      "Ġsevd": 6149,
      "ĠTÃ¼rkiye": 6150,
      "Ã¢gat": 6151,
      "ĠResÃ»lullÃ¢h": 6152,
      "Ġbekler": 6153,
      "Ġdemekdir": 6154,
      "ĠÃĤsitÃ¢ne": 6155,
      "Ah": 6156,
      "Acem": 6157,
      "Ġkis": 6158,
      "iran": 6159,
      "andan": 6160,
      "Ġgec": 6161,
      "Ġneye": 6162,
      "emde": 6163,
      "ulÃ»m": 6164,
      "Ġetse": 6165,
      "ezim": 6166,
      "ĠYir": 6167,
      "ĠYunan": 6168,
      "Ġeylese": 6169,
      "ĠgÃ¼lÅŁende": 6170,
      "Ã¼Ã±den": 6171,
      "ĠÅŁemÅŁÃ®r": 6172,
      "Ġhiss": 6173,
      "ustos": 6174,
      "ĠCebel": 6175,
      "ĠÄ°pÅŁir": 6176,
      "EBÄ°LÃľRREÅŀÃĤD": 6177,
      "dun": 6178,
      "ĠbiÃ§": 6179,
      "Ġsat": 6180,
      "Ã¢lÃ¼": 6181,
      "ĠÄ°slÃ¢miyet": 6182,
      "Ã¢detlÃ¼": 6183,
      "ĠhakkÃ¢": 6184,
      "ĠKaraman": 6185,
      "ĠTebrÃ®z": 6186,
      "ĠMonlÃ¢": 6187,
      "ĠAyasofya": 6188,
      "Ø®": 6189,
      "ĠbÄ«": 6190,
      "ina": 6191,
      "Ġdost": 6192,
      "ĠÅŁabr": 6193,
      "ĠHÃ¢ÅŁ": 6194,
      "ĠSÃ»r": 6195,
      "ĠÃ§at": 6196,
      "ĠÄ°dÃ¢r": 6197,
      "Ã¢sÄ±r": 6198,
      "ĠDeh": 6199,
      "ĠYÃ¼s": 6200,
      "Ġesas": 6201,
      "Ġley": 6202,
      "mÄ±ÅŁdur": 6203,
      "ĠÅŁerbet": 6204,
      "iyyeti": 6205,
      "ĠCemÃ¢di": 6206,
      "Ġgemileri": 6207,
      "ĠsÃ¼kker": 6208,
      "ĠFurÃ¢t": 6209,
      "60": 6210,
      "Ã§eÅŁ": 6211,
      "ÄŁine": 6212,
      "ast": 6213,
      "ĠKaÃ§": 6214,
      "ĠSÃ¢": 6215,
      "ĠzÃ¢": 6216,
      "ĠÃ§Ã¢re": 6217,
      "ĠNehr": 6218,
      "ĠFeth": 6219,
      "ĠbillÃ¢h": 6220,
      "Ġistif": 6221,
      "ĠbunlardÄ±r": 6222,
      "ĠDervÃ®ÅŁ": 6223,
      "ĠnÃ¢zÃ¼k": 6224,
      "ĠHayÃ¢lÃ®": 6225,
      "ĠuyÃ»n": 6226,
      "Ġbiyografi": 6227,
      "32": 6228,
      "mÄģn": 6229,
      "sim": 6230,
      "sat": 6231,
      "sÃ¢z": 6232,
      "Ã¢net": 6233,
      "ellik": 6234,
      "ĠGalat": 6235,
      "idÃ¼m": 6236,
      "Ġkims": 6237,
      "Ġalmak": 6238,
      "ĠRÃ»h": 6239,
      "Ġesb": 6240,
      "ĠÃ¶lÃ¼m": 6241,
      "Ġlebi": 6242,
      "ĠUz": 6243,
      "ĠolduÄŁun": 6244,
      "ĠSerdÃ¢r": 6245,
      "ĠEmÃ®n": 6246,
      "ĠortasÄ±nda": 6247,
      "mÃ¢r": 6248,
      "ĠgubÃ¢r": 6249,
      "Ġtoh": 6250,
      "ĠBÃ¼tÃ¼n": 6251,
      "Ã¢yib": 6252,
      "ĠVil": 6253,
      "ĠhayÄ±r": 6254,
      "ĠyazÄ±lmÄ±ÅŁ": 6255,
      "Ġseyl": 6256,
      "ĠtevÃ¢bi": 6257,
      "Ġkaleme": 6258,
      "ĠRÃ»mÃ®": 6259,
      "ĠkÃ¼ffÃ¢rÄ±n": 6260,
      "delÃ®b": 6261,
      "niÅŁin": 6262,
      "Ġadam": 6263,
      "ftÃ¢de": 6264,
      "ĠletÃ¢fet": 6265,
      "oj": 6266,
      "sah": 6267,
      "vÃ¢sÄ±": 6268,
      "mele": 6269,
      "Ä±ÅŁm": 6270,
      "Ġilim": 6271,
      "ĠharÃ¢c": 6272,
      "ĠYÃ¼suf": 6273,
      "48": 6274,
      "ĠcÃ¢me": 6275,
      "ĠHÃ¢m": 6276,
      "ĠpehlivÃ¢n": 6277,
      "lidir": 6278,
      "Ġnedir": 6279,
      "Ġonar": 6280,
      "Ġferah": 6281,
      "ĠuryÃ¢n": 6282,
      "ĠmÃ¼lÃ»k": 6283,
      "ĠÅŁeydÃ¢": 6284,
      "ĠYahÃ»dÃ®": 6285,
      "ĠSebÃ®lÃ¼rreÅŁÃ¢d": 6286,
      "ĠbehiÅŁt": 6287,
      "DE": 6288,
      "besi": 6289,
      "ars": 6290,
      "Ä±ncÄ±": 6291,
      "Ġyas": 6292,
      "ĠrÃ¼": 6293,
      "ĠeyÃ¢leti": 6294,
      "affer": 6295,
      "ĠÅŁehzÃ¢de": 6296,
      "ĠÅŁerif": 6297,
      "ĠUn": 6298,
      "Ġidin": 6299,
      "ĠhuzÃ»runda": 6300,
      "Allah": 6301,
      "ĠMatba": 6302,
      "El": 6303,
      "nih": 6304,
      "ĠMÃ¼c": 6305,
      "Ġreyh": 6306,
      "Ġmahz": 6307,
      "Ġberk": 6308,
      "ĠmecrÃ»h": 6309,
      "ĠmÄ±dur": 6310,
      "ĠmÃ¼tec": 6311,
      "ĠsalÃ¢t": 6312,
      "ĠÃ¢zÃ¢d": 6313,
      "laÅŁ": 6314,
      "deÅŁ": 6315,
      "Ġyor": 6316,
      "ĠErt": 6317,
      "ĠÃ§Ã¢s": 6318,
      "ĠÃĩÃ¢r": 6319,
      "Ġkanlu": 6320,
      "mesine": 6321,
      "ĠedebÃ®": 6322,
      "ĠtevÃ¢rÃ®h": 6323,
      "diÄŁini": 6324,
      "SebilÃ¼rreÅŁÃ¢d": 6325,
      "ĠPeygamber": 6326,
      "dÃ»m": 6327,
      "kÃ®n": 6328,
      "lÃ»": 6329,
      "ĠkÃ¢d": 6330,
      "Ġse": 6331,
      "Ä°M": 6332,
      "miÅŁdÃ¼r": 6333,
      "Ä±mdÄ±r": 6334,
      "Ġakar": 6335,
      "Ġ349": 6336,
      "ĠmÃ¼lÃ¢zÄ±m": 6337,
      "Ä±mÄ±za": 6338,
      "Ã¼vvet": 6339,
      "ĠÅŁÃ¢dum": 6340,
      "AllÃ¢h": 6341,
      "ĠmukÃ¢belesinde": 6342,
      "ĠsulehÃ¢": 6343,
      "alem": 6344,
      "aá¸³": 6345,
      "isin": 6346,
      "ĠkadÄ±": 6347,
      "ĠAnat": 6348,
      "ĠÅŁÃ¢hib": 6349,
      "ayrÄ±": 6350,
      "ĠyaÅŁÄ±nda": 6351,
      "Ä±mÄ±zda": 6352,
      "ĠKerÃ®m": 6353,
      "ĠMuhibbÃ®": 6354,
      "Aceb": 6355,
      "nÃ¢r": 6356,
      "Ġtir": 6357,
      "ĠKum": 6358,
      "Ã¢dÃ¢t": 6359,
      "ĠbaÅŁlar": 6360,
      "beÄŁ": 6361,
      "ĠeÅŁer": 6362,
      "Ġgird": 6363,
      "ĠvÃ¢kÄ±f": 6364,
      "irfÃ¢n": 6365,
      "âĢ¦âĢ¦.(": 6366,
      "ĠkralÄ±": 6367,
      "aded": 6368,
      "kÃ¶": 6369,
      "ilden": 6370,
      "ĠKÃ¼l": 6371,
      "ĠNer": 6372,
      "ĠTak": 6373,
      "ĠesmÃ¢": 6374,
      "Ġmesken": 6375,
      "ĠtaÊ»": 6376,
      "Ġcenb": 6377,
      "Ġdiyor": 6378,
      "Ġaceb": 6379,
      "ĠKethudÃ¢": 6380,
      "ĠDefterdÃ¢r": 6381,
      "malÄ±": 6382,
      "Ø·": 6383,
      "ĠhÃ¼b": 6384,
      "ĠgÃ¢m": 6385,
      "ĠzÃ¢viye": 6386,
      "Ġatup": 6387,
      "ĠUlu": 6388,
      "imize": 6389,
      "Ġyanar": 6390,
      "Ġtabaka": 6391,
      "ĠbezzÃ¢z": 6392,
      "Ġetdiklerinde": 6393,
      "Ġcisri": 6394,
      "ĠMÃ¼slÃ¼manlÄ±k": 6395,
      "ÅŁembe": 6396,
      "ĠfevkÃ¢nÃ®": 6397,
      "90": 6398,
      "lay": 6399,
      "ØĮ": 6400,
      "ĠyÄģ": 6401,
      "ĠZamÃ¢n": 6402,
      "ĠAlÃ¢": 6403,
      "Ġtarafa": 6404,
      "asÄ±ndaki": 6405,
      "ĠResÃ»": 6406,
      "ĠifÃ¢de": 6407,
      "ĠFransa": 6408,
      "Ġkeyf": 6409,
      "ĠlisÃ¢nÄ±": 6410,
      "97": 6411,
      "gÄ±": 6412,
      "ĠbÃ»s": 6413,
      "ĠmÄ±s": 6414,
      "ĠsÄ±n": 6415,
      "ĠÅŁÃ®": 6416,
      "ĠÅŁen": 6417,
      "aÅŁur": 6418,
      "Ã¢tÄ±nÄ±": 6419,
      "ammer": 6420,
      "ĠmÃ¼ÅŁÃ¢h": 6421,
      "ĠitdÃ¼k": 6422,
      "Ä«d": 6423,
      "ĠÃ¶mr": 6424,
      "ĠÅŁerh": 6425,
      "ĠkÄ±lÃ¢": 6426,
      "ayÄ±p": 6427,
      "mesini": 6428,
      "Ġtamam": 6429,
      "ĠÃ¢sitÃ¢n": 6430,
      "Ġveri": 6431,
      "ĠvÃ¢lide": 6432,
      "ĠsÃ¼d": 6433,
      "ĠKeb": 6434,
      "adur": 6435,
      "ĠVec": 6436,
      "ĠGit": 6437,
      "reti": 6438,
      "ĠatlarÄ±": 6439,
      "ĠMuá¸¥": 6440,
      "ĠkayÄ±k": 6441,
      "Ġgemiler": 6442,
      "ĠnÃ¢hiye": 6443,
      "ĠminÃ¢resi": 6444,
      "ĠKÃ¼tÃ¼phan": 6445,
      "table": 6446,
      "ĠmÃ¼btelÃ¢": 6447,
      "Ġsecde": 6448,
      "ĠgÃ¼her": 6449,
      "ĠMeb": 6450,
      "ĠÅŀark": 6451,
      "ĠCum": 6452,
      "Ġelde": 6453,
      "ĠZil": 6454,
      "iyyede": 6455,
      "ĠkerÃ¢met": 6456,
      "ĠtekrÃ¢r": 6457,
      "Ġzemin": 6458,
      "ĠHilÃ¢fet": 6459,
      "ĠRevÃ¢n": 6460,
      "ĠdeÃ±lÃ¼": 6461,
      "ĠistÃ®lÃ¢": 6462,
      "ZiyÃ¢ret": 6463,
      "beste": 6464,
      "mar": 6465,
      "ĠhÃ¢let": 6466,
      "ĠgedÃ¢": 6467,
      "Ġyem": 6468,
      "Ġzehr": 6469,
      "iÅŁk": 6470,
      "Ġfez": 6471,
      "ĠVek": 6472,
      "ĠYar": 6473,
      "ĠderhÃ¢l": 6474,
      "ĠÅŁehrine": 6475,
      "Ä±hhat": 6476,
      "ĠÃ¢yÃ®ne": 6477,
      "essir": 6478,
      "ĠnerdÃ¼": 6479,
      "ĠbÄ±raÄŁup": 6480,
      "raÄŁ": 6481,
      "ĠX": 6482,
      "ĠtÃ¢li": 6483,
      "ĠcÃ¢rÃ®": 6484,
      "ĠHel": 6485,
      "ĠbirÃ§ok": 6486,
      "Ã¼mden": 6487,
      "ĠÃ§oc": 6488,
      "ĠgÃ¶l": 6489,
      "avul": 6490,
      "dÃ¼rÃ¼r": 6491,
      "ĠÃ§Ä±kdÄ±": 6492,
      "ĠMÃ¼st": 6493,
      "arruf": 6494,
      "Ġekmek": 6495,
      "ĠBenÃ¼m": 6496,
      "ullÃ¢hi": 6497,
      "Ġecnebiyye": 6498,
      "ĠmeÅŁhÃ¼r": 6499,
      "ĠyÃ¼ri": 6500,
      "ĠâĢ¦âĢ¦âĢ¦âĢ¦âĢ¦âĢ¦.(": 6501,
      "ĠselÃ¢met": 6502,
      "Ġfazla": 6503,
      "ĠmÃ¼stakil": 6504,
      "ĠResÃ»la": 6505,
      "hÃ»r": 6506,
      "Å¡": 6507,
      "ĠMÃ¢lik": 6508,
      "iÅŁi": 6509,
      "abil": 6510,
      "ĠGav": 6511,
      "Ġanlara": 6512,
      "medÃ¼m": 6513,
      "onya": 6514,
      "ĠgeÃ§di": 6515,
      "ĠbuyurmuÅŁ": 6516,
      "Ġedilmeyen": 6517,
      "ĠPerÅŁembe": 6518,
      "Ġbildirir": 6519,
      "ĠKÃ¢nÃ»n": 6520,
      "ĠMillet": 6521,
      "Ġkelime": 6522,
      "Bire": 6523,
      "hayr": 6524,
      "rÃ¼b": 6525,
      "sÃ¼vÃ¢r": 6526,
      "Ġkefer": 6527,
      "ĠsÃ¼l": 6528,
      "Ġyes": 6529,
      "Ġnem": 6530,
      "ĠMin": 6531,
      "ayÃ¢n": 6532,
      "Äģs": 6533,
      "dÄ±z": 6534,
      "ĠAnÄ±n": 6535,
      "ĠtercÃ¼": 6536,
      "ĠdÃ¼ÅŁÃ¼r": 6537,
      "uyla": 6538,
      "ĠnÃ¢mÄ±na": 6539,
      "ĠmurÄŁ": 6540,
      "Ġmuhtes": 6541,
      "ĠsÃ¼nnet": 6542,
      "ĠMart": 6543,
      "ĠvÃ¢cibÃ¼": 6544,
      "udur": 6545,
      "yÃ¼z": 6546,
      "ÅŁam": 6547,
      "ĠgÃ¢z": 6548,
      "ĠsabÃ¢": 6549,
      "ĠyoÄŁ": 6550,
      "Ġaya": 6551,
      "ĠKil": 6552,
      "izz": 6553,
      "listÃ¢n": 6554,
      "olun": 6555,
      "Ã¢vere": 6556,
      "Ġbilin": 6557,
      "Ġmens": 6558,
      "Ġ355": 6559,
      "ĠefkÃ¢r": 6560,
      "ĠpenÃ§e": 6561,
      "vech": 6562,
      "rÃ¢c": 6563,
      "tim": 6564,
      "ĠvÃ¢sÃ®": 6565,
      "ĠiÃ±": 6566,
      "enÃ¼nÃ¼": 6567,
      "enaleyh": 6568,
      "ĠsÃ¢de": 6569,
      "illah": 6570,
      "ĠMayÄ±s": 6571,
      "ĠkalÄ±n": 6572,
      "ĠÅŀeddÃ¢dÃ®": 6573,
      "ĠaltÄ±ndan": 6574,
      "Ġona": 6575,
      "ĠaÄŁlar": 6576,
      "ĠDerc": 6577,
      "Ġimz": 6578,
      "ĠsultÃ¢nÃ®": 6579,
      "ĠHarem": 6580,
      "ĠGÃ¼rcÃ®": 6581,
      "46": 6582,
      "ĠbÃ¼s": 6583,
      "ĠiÃ¢de": 6584,
      "etleri": 6585,
      "ahd": 6586,
      "uncu": 6587,
      "ĠKam": 6588,
      "Ġdedim": 6589,
      "ulup": 6590,
      "Ġred": 6591,
      "Ġistin": 6592,
      "ĠzÃ¼lfÃ¼Ã±": 6593,
      "Ġbulunup": 6594,
      "keme": 6595,
      "ĠlevÃ¢zÄ±m": 6596,
      "Ġkimesneler": 6597,
      "ĠbÃ¢ÄŁÃ§esi": 6598,
      "ĠMukadde": 6599,
      "ĠKÃ¶p": 6600,
      "ĠmuhÃ¢faza": 6601,
      "Ġsoff": 6602,
      "biyÃ¢": 6603,
      "dÃ®d": 6604,
      "rÃ¢t": 6605,
      "Äŀ": 6606,
      "ĠÅŁÃ¼f": 6607,
      "mese": 6608,
      "ĠSahr": 6609,
      "amÄ±z": 6610,
      "Ä°Y": 6611,
      "isa": 6612,
      "ĠÅŀir": 6613,
      "Ġlu": 6614,
      "ĠyÃ¼zÃ¼nde": 6615,
      "Ġmesned": 6616,
      "ĠkÄ±lÄ±p": 6617,
      "ĠmÃ¼ÅŁÃ¢r": 6618,
      "arrir": 6619,
      "ĠKalm": 6620,
      "sÃ»re": 6621,
      "ĠhÄ±rÃ¢m": 6622,
      "ĠÅŁeklinde": 6623,
      "ĠmÃ¼kerrer": 6624,
      "Ġiyi": 6625,
      "ĠBayr": 6626,
      "ĠHur": 6627,
      "daÄŁ": 6628,
      "ĠKeÅŁ": 6629,
      "Äģne": 6630,
      "ĠDah": 6631,
      "ĠPar": 6632,
      "Ã¢ciz": 6633,
      "Ġminber": 6634,
      "ĠHamdi": 6635,
      "eccÃ¼h": 6636,
      "ĠGazel": 6637,
      "99": 6638,
      "EL": 6639,
      "kel": 6640,
      "Ä·": 6641,
      "ĠkÃ¼b": 6642,
      "ĠhÄ±dmet": 6643,
      "eyÅŁ": 6644,
      "ĠNefer": 6645,
      "ĠinkÃ¢r": 6646,
      "Ġdevam": 6647,
      "ĠazÃ®met": 6648,
      "ĠdestÃ¢r": 6649,
      "ĠMesle": 6650,
      "Ġgazet": 6651,
      "Ġfakat": 6652,
      "ĠÄ°lÃ¢hÃ®": 6653,
      "Ê»dehu": 6654,
      "lisi": 6655,
      "sÃ»s": 6656,
      "ÅŁan": 6657,
      "ĠsÃ¢nÃ®": 6658,
      "Ġdis": 6659,
      "ĠNÃ¢": 6660,
      "ĠNitekim": 6661,
      "ĠÅŀar": 6662,
      "ĠÅŀub": 6663,
      "ĠÃĩavuÅŁ": 6664,
      "ĠLev": 6665,
      "ĠÃ¼Ã§er": 6666,
      "ĠirsÃ¢l": 6667,
      "Ġ358": 6668,
      "ĠyÄ±lan": 6669,
      "ĠSaÃ±a": 6670,
      "ĠÃ§evir": 6671,
      "ĠhukÃ»k": 6672,
      "Ġyahud": 6673,
      "ĠÃ§uka": 6674,
      "Ã¢tÄ±mÃ¼stakim": 6675,
      "bÃ»l": 6676,
      "kek": 6677,
      "og": 6678,
      "zÃ¢d": 6679,
      "zede": 6680,
      "zemÃ®n": 6681,
      "ĠÄģh": 6682,
      "alÃ¢": 6683,
      "ilik": 6684,
      "Ġpirin": 6685,
      "ĠGar": 6686,
      "ĠPir": 6687,
      "ĠbinÃ¢sÄ±": 6688,
      "Ã¢lemi": 6689,
      "ĠÃ¢heng": 6690,
      "Ġihtir": 6691,
      "likte": 6692,
      "Ġ357": 6693,
      "Ġkapudur": 6694,
      "ĠcemÃ®Ê»i": 6695,
      "Ġnehir": 6696,
      "Ġkullesi": 6697,
      "dehen": 6698,
      "rablus": 6699,
      "kapu": 6700,
      "ĠkelimÃ¢t": 6701,
      "ĠnerdÃ¼bÃ¢n": 6702,
      "AK": 6703,
      "fÃ¼r": 6704,
      "ÅŁÃ¼r": 6705,
      "ĠmÃ¢r": 6706,
      "Ġejder": 6707,
      "enedik": 6708,
      "Ã§Ã¢re": 6709,
      "Ġaf": 6710,
      "Ġbuhayre": 6711,
      "iki": 6712,
      "Ġulem": 6713,
      "ava": 6714,
      "Ġherbir": 6715,
      "ĠAna": 6716,
      "ĠAnlar": 6717,
      "ĠGÃ¶k": 6718,
      "Ġbelde": 6719,
      "Ġ359": 6720,
      "ĠpeykÃ¢n": 6721,
      "ĠmÃ¢likdir": 6722,
      "ĠEflak": 6723,
      "Ġsizin": 6724,
      "ĠÄ°ctimÃ¢": 6725,
      "mend": 6726,
      "inc": 6727,
      "Ġsuy": 6728,
      "Ġsize": 6729,
      "ĠMut": 6730,
      "ĠÃĩok": 6731,
      "ĠgÃ¶rmek": 6732,
      "Ã¢viz": 6733,
      "beÄŁi": 6734,
      "dÃ¼d": 6735,
      "ĠbilÃ¢d": 6736,
      "ĠirÅŁÃ¢d": 6737,
      "ĠBunlardan": 6738,
      "ÙĥÙħ": 6739,
      "ĠhÃ¼ner": 6740,
      "Ġkapusundan": 6741,
      "ĠdeÅŁt": 6742,
      "].....": 6743,
      "lÃ¢d": 6744,
      "Ã¼de": 6745,
      "ĠiÄŁ": 6746,
      "ĠMÃ¼b": 6747,
      "eyler": 6748,
      "ĠSu": 6749,
      "ĠÃ§ift": 6750,
      "ĠarÅŁÄ±n": 6751,
      "ĠidrÃ¢k": 6752,
      "Ġdimekle": 6753,
      "ĠÄ§": 6754,
      "ĠbulunmasÄ±": 6755,
      "Ġpertev": 6756,
      "ĠhakkÄ±": 6757,
      "Ġebed": 6758,
      "Ġnergis": 6759,
      "ĠkÃ¼ÅŁÃ¢de": 6760,
      "ĠpinhÃ¢n": 6761,
      "Ben": 6762,
      "rÃ¼c": 6763,
      "ĠMÃ®r": 6764,
      "ĠDeg": 6765,
      "ĠolunduÄŁu": 6766,
      "ĠgÃ¶rmedi": 6767,
      "Ã¼ben": 6768,
      "Ġehemm": 6769,
      "Ġperv": 6770,
      "Ġ356": 6771,
      "ĠEbÃ®": 6772,
      "Ġbahs": 6773,
      "ĠekseriyyÃ¢": 6774,
      "ĠpÃ¢kÃ®ze": 6775,
      "ĠrivÃ¢yet": 6776,
      "ĠGalata": 6777,
      "cÄ±baÅŁÄ±": 6778,
      "mÃ®m": 6779,
      "ÅŁÃ¢f": 6780,
      "ĠdÃ»r": 6781,
      "ĠyÄģr": 6782,
      "ĠniÃ§": 6783,
      "ĠBoz": 6784,
      "ĠHÃ¼n": 6785,
      "Ġbirinci": 6786,
      "Ġzor": 6787,
      "Ã¢kat": 6788,
      "ĠDidÃ¼m": 6789,
      "ĠYaÅŁ": 6790,
      "ĠFev": 6791,
      "ĠFÃ¢ris": 6792,
      "ĠÃ¼stÃ¼vÃ¢r": 6793,
      "Ġvakit": 6794,
      "ĠmÃ¼stah": 6795,
      "ĠhÃ¢neleri": 6796,
      "ĠmebzÃ»l": 6797,
      "ĠnÃ¢hiyesi": 6798,
      "ĠiltizÃ¢m": 6799,
      "ĠAbdurrahmÃ¢n": 6800,
      "ĠmÃ¼staÄŁrak": 6801,
      "*}": 6802,
      "dÃ®l": 6803,
      "},": 6804,
      "ĠmÃ¢t": 6805,
      "lemi": 6806,
      "Ã§uk": 6807,
      "ĠcÃ¼z": 6808,
      "ĠniÃ§Ã¼n": 6809,
      "iyÃ¢b": 6810,
      "eydi": 6811,
      "ibaÅŁÄ±": 6812,
      "ĠTE": 6813,
      "ĠÅŀÃ¶yle": 6814,
      "ĠmuÊ»": 6815,
      "ĠCir": 6816,
      "apusu": 6817,
      "Ã¢ÅŁÃ®": 6818,
      "Ä«b": 6819,
      "Ġleyle": 6820,
      "ĠAnuÃ±": 6821,
      "Ã®zÃ¢n": 6822,
      "ĠÃ§Ä±kmÄ±ÅŁ": 6823,
      "Ġimt": 6824,
      "ĠkesÃ®r": 6825,
      "ĠnigÃ¢h": 6826,
      "ĠÄ°tal": 6827,
      "ĠmuhÃ¢faz": 6828,
      "Ġkitap": 6829,
      "Ġmaksad": 6830,
      "ĠleÅŁker": 6831,
      "malarÄ±": 6832,
      "Ä¥": 6833,
      "ĠbayÄ±r": 6834,
      "arsa": 6835,
      "ĠHÃ¢z": 6836,
      "asan": 6837,
      "ĠSarÄ±": 6838,
      "acaÄŁÄ±": 6839,
      "Ġleh": 6840,
      "iyyÃ¼": 6841,
      "Ġharf": 6842,
      "Ġferd": 6843,
      "ĠkerÃ®m": 6844,
      "ĠÄ¥": 6845,
      "Ġyirde": 6846,
      "nÃ¢da": 6847,
      "Ġetmeye": 6848,
      "keÅŁÃ¢n": 6849,
      "ĠBeÃ±": 6850,
      "iftÃ¢h": 6851,
      "ĠLeylÃ¢": 6852,
      "Ġcenbinde": 6853,
      "47": 6854,
      "dÃ¼l": 6855,
      "rad": 6856,
      "ĠbÃ¼k": 6857,
      "Ġhim": 6858,
      "ĠMir": 6859,
      "ibÃ¢n": 6860,
      "Ġrenc": 6861,
      "Ä±nÄ±f": 6862,
      "ĠbaÊ»": 6863,
      "Ġkavl": 6864,
      "ĠteveccÃ¼h": 6865,
      "ĠadÃ¢let": 6866,
      "ĠÙĪØ§ÙĦ": 6867,
      "ĠKazak": 6868,
      "ĠtakdÃ®r": 6869,
      "ÂŃ": 6870,
      "Ã¼g": 6871,
      "dek": 6872,
      "ĠmÃ»": 6873,
      "ĠvÃ¢r": 6874,
      "Ġged": 6875,
      "Ġdok": 6876,
      "Ã¢lÄ±": 6877,
      "Ġpost": 6878,
      "Ã¢ka": 6879,
      "Ä±lmaz": 6880,
      "idÃ¢r": 6881,
      "avÃ¢t": 6882,
      "Ã®lÃ®": 6883,
      "Ġdeyince": 6884,
      "Ã¢dil": 6885,
      "Ã¼lfet": 6886,
      "ĠÃ¢demleri": 6887,
      "Ġaskere": 6888,
      "ĠmÃ¼rÃ»r": 6889,
      "Ġmuvahh": 6890,
      "Ġkafes": 6891,
      "ddÃ®n": 6892,
      "Ġamel": 6893,
      "ĠAm": 6894,
      "Ġzeh": 6895,
      "ĠTan": 6896,
      "ĠYÃ¼r": 6897,
      "ĠRem": 6898,
      "ĠRef": 6899,
      "tÃ¢nÃ®": 6900,
      "Ã»lÃ»": 6901,
      "Ġevleri": 6902,
      "Ġbunlardan": 6903,
      "ĠtahÅŁ": 6904,
      "ĠÅŁart": 6905,
      "ĠkadÃ®mdir": 6906,
      "ĠvazÃ®fe": 6907,
      "ĠreftÃ¢r": 6908,
      "ĠÄ°lm": 6909,
      "ĠpenÃ§": 6910,
      "ĠtavsÃ®f": 6911,
      "ĠErzurÃ»m": 6912,
      "55": 6913,
      "ben": 6914,
      "rÃ»r": 6915,
      "ĠÃ¼l": 6916,
      "Ä°ÅŁ": 6917,
      "ĠÅŀam": 6918,
      "ĠÅŀev": 6919,
      "ĠuÄŁ": 6920,
      "mada": 6921,
      "imizde": 6922,
      "ĠyÃ¢ra": 6923,
      "ĠAyn": 6924,
      "Ġmuhtasar": 6925,
      "ĠolmaÄŁÄ±la": 6926,
      "rika": 6927,
      "dÃ¼gÃ¼m": 6928,
      "ĠmevlÃ»d": 6929,
      "eden": 6930,
      "feÅŁ": 6931,
      "nÃ¢s": 6932,
      "vele": 6933,
      "zar": 6934,
      "Ġâģ¶": 6935,
      "Ä±dur": 6936,
      "Ġhele": 6937,
      "ĠVef": 6938,
      "Ġmevlev": 6939,
      "Ġ./": 6940,
      "ĠdiyÃ¢rÄ±nda": 6941,
      "Ġvefat": 6942,
      "ĠkÃ¼lÃ¢h": 6943,
      "ĠdizdÃ¢r": 6944,
      "ĠnebÃ¢t": 6945,
      "ĠmÃ¼ÅŁÃ¢hede": 6946,
      "Ø¥": 6947,
      "Ġsub": 6948,
      "ĠÅŁab": 6949,
      "Ġnakk": 6950,
      "Ã¢mil": 6951,
      "assal": 6952,
      "ĠEt": 6953,
      "Ã¢yil": 6954,
      "ĠÃ§alar": 6955,
      "Ã®rÃ»n": 6956,
      "ĠNah": 6957,
      "ĠYe": 6958,
      "slÃ¢h": 6959,
      "ĠatÃ®k": 6960,
      "tiÄŁi": 6961,
      "ĠbÃ¢ÄŁÄ±": 6962,
      "ĠÃ¢fet": 6963,
      "Ġnehb": 6964,
      "ĠmeÅŁhÃ»rdur": 6965,
      "ĠgÃ¼rÃ»h": 6966,
      "ĠGirid": 6967,
      "ĠArapÃ§a": 6968,
      "ĠolÄ±cak": 6969,
      "Ġyeb": 6970,
      "ursa": 6971,
      "ĠÅŁev": 6972,
      "ĠKÃ¢tib": 6973,
      "Ã¢tdan": 6974,
      "ĠÃ¼ftÃ¢de": 6975,
      "Ġettir": 6976,
      "Ġmuf": 6977,
      "mÃ¢diyye": 6978,
      "ĠsenÃ¢": 6979,
      "ĠÃ¼zÃ¼m": 6980,
      "lÄ±dÄ±r": 6981,
      "ĠLÃ¢le": 6982,
      "Ġmuhabbet": 6983,
      "Ġisen": 6984,
      "Ġdemde": 6985,
      "Ġ^{*}": 6986,
      "Ġcevher": 6987,
      "Ø±Ø§Ø": 6988,
      "Ġgitdiler": 6989,
      "ĠMest": 6990,
      "ĠzemÃ¢n": 6991,
      "ĠHezec": 6992,
      "44": 6993,
      "hur": 6994,
      "kas": 6995,
      "ndan": 6996,
      "zÃ¼l": 6997,
      "Ġelem": 6998,
      "Ġbirinde": 6999,
      "Ġpederi": 7000,
      "ĠrÃ¼h": 7001,
      "ĠPr": 7002,
      "ĠZiyÃ¢ret": 7003,
      "sile": 7004,
      "Ä«l": 7005,
      "Ġakl": 7006,
      "ĠiÅŁi": 7007,
      "ĠdeÄŁirmen": 7008,
      "ĠvirÃ¼p": 7009,
      "ĠÅŁimden": 7010,
      "Ġkademe": 7011,
      "ĠOsmÃ¢niyye": 7012,
      "Ġhangi": 7013,
      "Ġarzda": 7014,
      "Ġtasarruf": 7015,
      "ĠÅŀehzÃ¢de": 7016,
      "melidir": 7017,
      "ĠÃĩerkez": 7018,
      "ĠKostant": 7019,
      "KIB": 7020,
      "'re": 7021,
      "zel": 7022,
      "Ùĭ": 7023,
      "iya": 7024,
      "ĠKah": 7025,
      "Ġell": 7026,
      "Ä±sÄ±nda": 7027,
      "ĠhÃ¢lis": 7028,
      "oÄŁra": 7029,
      "Ġyolda": 7030,
      "ĠkÃ¢rhÃ¢ne": 7031,
      "ĠtemÃ¢m": 7032,
      "ĠÃ§Ã¼nkÃ¼": 7033,
      "ĠteÅŁkil": 7034,
      "á¸Ńr": 7035,
      "Ã¢kÄ±bet": 7036,
      "ĠNakÅŁ": 7037,
      "Ġá¸¤Ä±á¸Ńr": 7038,
      "ĠSeksan": 7039,
      "ĠHoca": 7040,
      "Ã¢iti": 7041,
      "SÄ±r": 7042,
      "Ã®leri": 7043,
      "Ã¢ni": 7044,
      "Ġolamaz": 7045,
      "diye": 7046,
      "ĠNeÅŁ": 7047,
      "ĠCin": 7048,
      "ceme": 7049,
      "Ġeseri": 7050,
      "ĠÃĤÅŁ": 7051,
      "ĠdÃ¶ÄŁ": 7052,
      "ĠayaÄŁÄ±": 7053,
      "ĠkenÃ®se": 7054,
      "ĠidelÃ¼m": 7055,
      "ĠsahÃ®h": 7056,
      "ĠÃ¢yine": 7057,
      "ĠitmiÅŁler": 7058,
      "ĠcidÃ¢l": 7059,
      "ĠkÃ¼nc": 7060,
      "ĠÃ¶nemli": 7061,
      "masÄ±n": 7062,
      "Ġdam": 7063,
      "Ã§u": 7064,
      "Ã¢mÄ±n": 7065,
      "ĠÃ§em": 7066,
      "Ġfeh": 7067,
      "Ä±zÃ¢de": 7068,
      "Ġevlerdir": 7069,
      "ĠihÃ¢ta": 7070,
      "ilecek": 7071,
      "ĠdÃ¼rÃ¼st": 7072,
      "Ġteber": 7073,
      "ĠtefsÃ®r": 7074,
      "ĠKapudan": 7075,
      "ĠÄ°Ã§inde": 7076,
      "Ġbelirt": 7077,
      "ĠmÃ¼tecÃ¢viz": 7078,
      "bel": 7079,
      "Ġá¼": 7080,
      "ĠbÃ¼t": 7081,
      "ĠÃ§iz": 7082,
      "ĠDin": 7083,
      "ĠilmÃ®": 7084,
      "Ġkatre": 7085,
      "ĠgÃ¶ni": 7086,
      "ĠbulunmaktadÄ±r": 7087,
      "ĠdaÄŁlarÄ±ndan": 7088,
      "ĠÃ¢lÃ¢t": 7089,
      "duklarÄ±": 7090,
      "Ġrevzen": 7091,
      "hicce": 7092,
      "mayan": 7093,
      "paÅŁa": 7094,
      "ĠhitÃ¢b": 7095,
      "Ã»be": 7096,
      "Ġolay": 7097,
      "Ġbirinin": 7098,
      "Ġbirlikte": 7099,
      "Ġderec": 7100,
      "ÃĤKIB": 7101,
      "attar": 7102,
      "Ġvirmez": 7103,
      "ĠkabÃ¢": 7104,
      "ÙĪÙĦ": 7105,
      "ĠedilmiÅŁtir": 7106,
      "ĠkendÃ¼yi": 7107,
      "ĠkeÅŁtÃ®": 7108,
      "ĠMefÃ¢f": 7109,
      "ĠDÃ¢rÃ¼": 7110,
      "ĠMÃ¼dÃ®r": 7111,
      "Ġvahdet": 7112,
      "Ġeyitdi": 7113,
      "ĠfÃ®r": 7114,
      "ĠYal": 7115,
      "ĠeylesÃ¼n": 7116,
      "uÃ±dan": 7117,
      "ĠÃ¶ykÃ¼n": 7118,
      "ilÃ¢tÃ¼": 7119,
      "ÃĤM": 7120,
      "ĠkanÄ±": 7121,
      "ĠÅŀeyhÃ®": 7122,
      "ĠMurtezÃ¢": 7123,
      "ĠmÃ¼bÃ¢ÅŁ": 7124,
      "Abone": 7125,
      "Ġzarar": 7126,
      "ĠHatta": 7127,
      "Ġiltif": 7128,
      "ĠvÃ¢zÄ±h": 7129,
      "ĠmÃ¼devver": 7130,
      "kik": 7131,
      "sak": 7132,
      "ĠÃ¢ye": 7133,
      "Ã¼rÃ®": 7134,
      "ĠzÃ¼h": 7135,
      "Ġmaal": 7136,
      "makta": 7137,
      "Ġkazan": 7138,
      "ĠyapÄ±ÅŁ": 7139,
      "ĠtenbÃ®h": 7140,
      "ĠII": 7141,
      "lama": 7142,
      "Ġmill": 7143,
      "ÃľS": 7144,
      "ĠhaÅŁeb": 7145,
      "ĠgÃ¶rinen": 7146,
      "ĠtakrÃ®r": 7147,
      "57": 7148,
      "ergÃ¢n": 7149,
      "meÄŁi": 7150,
      "Ã¶m": 7151,
      "eyÃ¼p": 7152,
      "Ã¢dÄ±k": 7153,
      "Ġust": 7154,
      "ĠyÃ¼zÃ¼nÃ¼": 7155,
      "Ġverirler": 7156,
      "ĠakÃ§": 7157,
      "sarÃ¢y": 7158,
      "Ġtoksan": 7159,
      "ĠbuÄŁday": 7160,
      "ĠMesleÄŁe": 7161,
      "68": 7162,
      "nik": 7163,
      "pa": 7164,
      "tam": 7165,
      "tÄ±ÄŁÄ±": 7166,
      "Ġyeg": 7167,
      "ĠMÃ¼h": 7168,
      "ĠonlarÄ±n": 7169,
      "Ã¢nÄ±dÄ±r": 7170,
      "ĠØ¯": 7171,
      "Ġ(-).": 7172,
      "ĠgiryÃ¢n": 7173,
      "Ã¢rÄ±dÄ±r": 7174,
      "ĠÅŁÃ¢hid": 7175,
      "ĠmÃ¼stev": 7176,
      "ĠÃ¢lÃ®dir": 7177,
      "Ġeserin": 7178,
      "ĠÃ¢ÅŁinÃ¢": 7179,
      "ĠkÄ±sm": 7180,
      "ĠgÃ¼mrÃ¼k": 7181,
      "Ġzann": 7182,
      "50": 7183,
      "58": 7184,
      "adem": 7185,
      "dal": 7186,
      "haf": 7187,
      "Ä±ndÄ±r": 7188,
      "Ġcir": 7189,
      "ĠKÃ¢dÃ®": 7190,
      "ĠSEBÄ°LÃľRREÅŀÃĤD": 7191,
      "Ġfur": 7192,
      "ĠNef": 7193,
      "ĠRak": 7194,
      "avn": 7195,
      "Ġ(-)</": 7196,
      "ĠÃ§Ä±kan": 7197,
      "Ġá¸«ay": 7198,
      "ĠEylÃ¼l": 7199,
      "ĠkavÃ®": 7200,
      "Ġseksan": 7201,
      "ĠMÃ¼slim": 7202,
      "Ã¶mrÃ¼m": 7203,
      "aleyhi": 7204,
      "ĠÃ¢sumÃ¢n": 7205,
      "ĠGavrÃ®": 7206,
      "21": 7207,
      "binÃ¢": 7208,
      "cev": 7209,
      "iá¹£": 7210,
      "veys": 7211,
      "Ġvic": 7212,
      "ĠhÃ®n": 7213,
      "Ġoluyor": 7214,
      "Ġced": 7215,
      "ĠAc": 7216,
      "aÅŁtÄ±r": 7217,
      "deng": 7218,
      "Ä°H": 7219,
      "ĠfÃ¢tih": 7220,
      "ĠpÃ¢r": 7221,
      "Ã¢dÃ®l": 7222,
      "ĠTat": 7223,
      "ĠRÃ¼z": 7224,
      "avÃ®": 7225,
      "Ä±mÃ¢r": 7226,
      "Ä±mdan": 7227,
      "Ġmaá¸¥": 7228,
      "Ġaraba": 7229,
      "Ã»ht": 7230,
      "ĠibÃ¢d": 7231,
      "ĠUst": 7232,
      "ĠbulunmuÅŁ": 7233,
      "ĠAkdeniz": 7234,
      "ĠHalÃ®fe": 7235,
      "ĠmÃ¼cellÃ¢": 7236,
      "ĠvÃ¼cÃ¼d": 7237,
      "ĠyÃ¼rÃ¼y": 7238,
      "ĠnÃ¢zÄ±rdÄ±r": 7239,
      "ĠSeyr": 7240,
      "ĠNÃ¼shasÄ±": 7241,
      "ĠyebÃ¢b": 7242,
      "fez": 7243,
      "tef": 7244,
      "Ġ#": 7245,
      "ĠÃ¢rÃ¢": 7246,
      "Ġkev": 7247,
      "anlÄ±": 7248,
      "Ġtuz": 7249,
      "ĠBoy": 7250,
      "ĠSÃ¢nÃ®": 7251,
      "ĠzÄ±l": 7252,
      "ĠNemr": 7253,
      "Ġmahr": 7254,
      "ĠÅŁerÃ¢b": 7255,
      "Ġkurtar": 7256,
      "ĠAhvÃ¢l": 7257,
      "Ġkana": 7258,
      "ĠhÃ¼snÃ¼nÃ¼": 7259,
      "Ø¨Ø¹": 7260,
      "diyor": 7261,
      "ĠÃľmmÃ¼": 7262,
      "ĠnÃ¼mÃ¢yÃ¢ndÄ±r": 7263,
      "ĠayrÄ±ca": 7264,
      "ĠusÃ»l": 7265,
      "ĠHukÃ»k": 7266,
      "ĠKÃ¼tÃ¼phanesi": 7267,
      "\".": 7268,
      "ĠmidÃ¼r": 7269,
      "anma": 7270,
      "Ġseg": 7271,
      "Ġtic": 7272,
      "lerÃ¼Ã±": 7273,
      "ĠÅŁadr": 7274,
      "ĠMet": 7275,
      "ĠHor": 7276,
      "ĠSÃ¼h": 7277,
      "ehÃ¢nesi": 7278,
      "add": 7279,
      "Ġelf": 7280,
      "Ġolundukda": 7281,
      "ĠasÄ±l": 7282,
      "ĠdÃ¶ÅŁ": 7283,
      "Ġilgili": 7284,
      "ĠharÃ®r": 7285,
      "oyv": 7286,
      "ĠHÃ¼srev": 7287,
      "Ġmutlak": 7288,
      "Ġsayf": 7289,
      "perest": 7290,
      "Ä±dvÃ¢n": 7291,
      "Ġtarihi": 7292,
      "Ġmerkez": 7293,
      "tes": 7294,
      "tor": 7295,
      "iyla": 7296,
      "eÅŁte": 7297,
      "Ġ400": 7298,
      "ĠmerÃ¢m": 7299,
      "ĠÅŁehriyÃ¢r": 7300,
      "ĠsÃ¢ir": 7301,
      "ĠÃ¢bdÃ¢r": 7302,
      "elÃ¢met": 7303,
      "ĠHersek": 7304,
      "Ġyeter": 7305,
      "Ä±tr": 7306,
      "ĠHamdÃ®": 7307,
      "ĠFerid": 7308,
      "Ġzulm": 7309,
      "Ø´Ø§Ø¯": 7310,
      "nef": 7311,
      "ĠnaÅŁ": 7312,
      "ĠHev": 7313,
      "ĠpÃ¢di": 7314,
      "Ġlaz": 7315,
      "ĠNazar": 7316,
      "Ġdevlete": 7317,
      "Ġsanma": 7318,
      "ĠhakÃ®rin": 7319,
      "ĠÃ¢yeti": 7320,
      "ĠManastÄ±r": 7321,
      "ĠÃĩerkes": 7322,
      "ĠmÃ¼selmÃ¢n": 7323,
      "addid": 7324,
      "Ġsokak": 7325,
      "ebbÃ¼s": 7326,
      "ĠArnavud": 7327,
      "98": 7328,
      "aá¸¥": 7329,
      "sÃ¢b": 7330,
      "ĠØ§Øª": 7331,
      "ĠbÃ¼l": 7332,
      "asr": 7333,
      "assa": 7334,
      "ĠfiÅŁ": 7335,
      "dire": 7336,
      "ĠVel": 7337,
      "ĠrÃ¼t": 7338,
      "Ġazm": 7339,
      "ĠolmuÅŁtur": 7340,
      "ĠkanÃ¢dÃ®l": 7341,
      "ĠÃ§ekdi": 7342,
      "ĠmevzÃ»n": 7343,
      "ĠAÄŁustos": 7344,
      "ĠmehÃ¢bet": 7345,
      "hÃ¢neler": 7346,
      "ĠgÃ¼zÃ¢r": 7347,
      "ĠkÃ¶r": 7348,
      "Ġgazete": 7349,
      "ĠedilmiÅŁ": 7350,
      "Ġdevrinde": 7351,
      "Ġzirve": 7352,
      "ĠSonra": 7353,
      "ĠsÃ¢Ê»at": 7354,
      "ĠØ§ÙĦØ±Ø´Ø§Ø¯": 7355,
      "ĠpeÅŁindir": 7356,
      "ĠrisÃ¢le": 7357,
      "ĠelliÅŁer": 7358,
      "Ġmiy": 7359,
      "ĠyÃ¢rÄ±": 7360,
      "Ã¢hede": 7361,
      "Ġdelik": 7362,
      "Ä°sÃ¢": 7363,
      "isine": 7364,
      "Äģc": 7365,
      "Ä±zÄ±": 7366,
      "iÃ§er": 7367,
      "iÃ§se": 7368,
      "Ġserver": 7369,
      "ĠgÃ¼lzÃ¢r": 7370,
      "Ġyerlerde": 7371,
      "ĠaÄŁÄ±r": 7372,
      "ĠolduÄŁuna": 7373,
      "ĠiÅŁt": 7374,
      "ĠHayÃ¢t": 7375,
      "Ġcenge": 7376,
      "dÃ¼ÄŁÃ¼m": 7377,
      "Ġcilt": 7378,
      "ĠmiskÃ®n": 7379,
      "ĠzindÃ¢n": 7380,
      "ĠYÃ»nus": 7381,
      "67": 7382,
      "Nev": 7383,
      "mamak": 7384,
      "rÃ»z": 7385,
      "siyle": 7386,
      "Ġmine": 7387,
      "anÃ®": 7388,
      "Ġdrah": 7389,
      "Ġtay": 7390,
      "Ġyur": 7391,
      "meleri": 7392,
      "ĠMÃ¼k": 7393,
      "ĠbirÃ¢der": 7394,
      "Ã¢tÄ±r": 7395,
      "ĠNet": 7396,
      "ĠNiz": 7397,
      "Ã¢ziy": 7398,
      "larÄ±m": 7399,
      "efÅŁÃ¢n": 7400,
      "rada": 7401,
      "ĠetdiÄŁi": 7402,
      "ĠcÃ¢nibe": 7403,
      "ĠtermÃ®m": 7404,
      "Ġemn": 7405,
      "lender": 7406,
      "Ġtekr": 7407,
      "Ġetmektedir": 7408,
      "Ġá¸«aá¸«": 7409,
      "ĠRabb": 7410,
      "ĠkÃ¢se": 7411,
      "Ġ(âĪĴ)": 7412,
      "ĠfÃ¼rkat": 7413,
      "Ġisteyen": 7414,
      "ĠmastÃ»rdur": 7415,
      "bÃ®n": 7416,
      "ĠbÃ¢t": 7417,
      "ĠsÃ»re": 7418,
      "Ã¢ha": 7419,
      "ĠKÃ¼y": 7420,
      "ĠlibÃ¢s": 7421,
      "Ġeyledik": 7422,
      "Ã®hat": 7423,
      "ĠkurÃ¢lar": 7424,
      "ĠibÃ¢ret": 7425,
      "ĠenvÃ¢": 7426,
      "gÃ¢hÄ±": 7427,
      "ĠtabÃ®": 7428,
      "ĠcenÃ¢b": 7429,
      "ĠGerm": 7430,
      "kapusu": 7431,
      "ĠØ³Ø¨": 7432,
      "EN": 7433,
      "neyn": 7434,
      "seyr": 7435,
      "ĠhÃ¢ze": 7436,
      "Ġdan": 7437,
      "Ġduy": 7438,
      "ĠtÄ±l": 7439,
      "etr": 7440,
      "ĠÅŁohbet": 7441,
      "meyi": 7442,
      "ĠSay": 7443,
      "ĠzÄ±r": 7444,
      "ĠNeb": 7445,
      "Äģf": 7446,
      "Ġrem": 7447,
      "Ġvarsa": 7448,
      "ĠanlarÄ±": 7449,
      "ĠitsÃ¼n": 7450,
      "ĠkardeÅŁ": 7451,
      "Ġberek": 7452,
      "ĠmekÃ¢n": 7453,
      "ĠurÃ»c": 7454,
      "ĠSelim": 7455,
      "ĠÃ¢ÅŁiyÃ¢n": 7456,
      "Ġyarar": 7457,
      "ĠeylemiÅŁdir": 7458,
      "ĠTarab": 7459,
      "Ġunut": 7460,
      "ĠcivÃ¢rÄ±nda": 7461,
      "ĠteferrÃ¼c": 7462,
      "ĠCemÃ¢diye": 7463,
      "ĠyesÃ¢r": 7464,
      "gÄ±n": 7465,
      "yÃ¢nÄ±": 7466,
      "are": 7467,
      "ĠsÃ¼h": 7468,
      "Ġtoz": 7469,
      "ĠtÃ¢lib": 7470,
      "iyÃ¢le": 7471,
      "Ġbirisi": 7472,
      "Ã¢tlarÄ±n": 7473,
      "iÅŁÃ¢r": 7474,
      "Äģá¸¥": 7475,
      "itap": 7476,
      "ĠRahm": 7477,
      "ĠPÃ¢y": 7478,
      "derÃ»n": 7479,
      "acÄ±yÃ¢n": 7480,
      "ĠdÃ¶ker": 7481,
      "Ġdide": 7482,
      "ĠnÃ¢mÄ±yla": 7483,
      "Ê¿l": 7484,
      "ĠoÄŁul": 7485,
      "ĠkadÃ®mde": 7486,
      "ĠtasvÃ®r": 7487,
      "Ġmenzili": 7488,
      "Ġmatbah": 7489,
      "ĠmezbÃ»re": 7490,
      "*.": 7491,
      "41": 7492,
      "ÅŁÃ®": 7493,
      "ĠkÄ±": 7494,
      "ĠÅŁÃ»r": 7495,
      "ĠKÃ¢f": 7496,
      "ĠKub": 7497,
      "ĠfasÄ±l": 7498,
      "Ġkalmaz": 7499,
      "ĠCadde": 7500,
      "ĠesÃ¢s": 7501,
      "ĠÅŁerÃ®": 7502,
      "ĠEvet": 7503,
      "cistÃ¢n": 7504,
      "Ġkemend": 7505,
      "Ġyirmi": 7506,
      "ĠGerek": 7507,
      "ĠTÃ¼rkmÃ¢n": 7508,
      "ĠÃ¶nÃ¼ne": 7509,
      "ĠbaÄŁlayup": 7510,
      "ĠyÃ¼ksek": 7511,
      "ĠAzak": 7512,
      "ĠAbbÃ¢siyÃ¢n": 7513,
      "ĠhÃ¢cet": 7514,
      "+--": 7515,
      "66": 7516,
      "mil": 7517,
      "ĠØ§Ø": 7518,
      "Ġâģ·": 7519,
      "ĠbaÅŁa": 7520,
      "ĠgÃ¼y": 7521,
      "ĠKefe": 7522,
      "izzet": 7523,
      "Ã¢ki": 7524,
      "ihre": 7525,
      "Ġmahv": 7526,
      "ĠÃĩav": 7527,
      "ĠharÃ¢mÃ®": 7528,
      "ici": 7529,
      "ĠÃ¢deme": 7530,
      "ĠØ§ÙĦÙī": 7531,
      "Ġmisli": 7532,
      "tihÃ¢r": 7533,
      "adiÅŁah": 7534,
      "Ġsitem": 7535,
      "ĠReÅŁÃ®d": 7536,
      "ĠeflÃ¢ke": 7537,
      "ĠYetmiÅŁ": 7538,
      "ĠseyyÃ¢h": 7539,
      "Ø¨Ø¹ÙĪÙĨ": 7540,
      "88": 7541,
      "erre": 7542,
      "enÃ¼n": 7543,
      "Ġsevk": 7544,
      "ĠeyledÃ¼kde": 7545,
      "ĠvermeyÃ¼p": 7546,
      "ilÃ¢tÃ»n": 7547,
      "ĠkatÄ±r": 7548,
      "ĠbÃ¢ÄŁlarÄ±": 7549,
      "Ġdirek": 7550,
      "ĠkÃ¶h": 7551,
      "ĠRÃ»miyye": 7552,
      "Ġokur": 7553,
      "Ġadres": 7554,
      "Ġefendim": 7555,
      "Ġbirbirine": 7556,
      "ĠMardin": 7557,
      "evvere": 7558,
      "Ġzulmet": 7559,
      "ÙĩØ¯ÙĥÙħ": 7560,
      "Ġmukarrerdir": 7561,
      "ĠidÃ¢re": 7562,
      "ĠÄ°dÃ¢rehÃ¢ne": 7563,
      "31": 7564,
      "ĠÃ¢ciz": 7565,
      "Ġbih": 7566,
      "ĠÅŁÃ¼b": 7567,
      "eke": 7568,
      "Ä°n": 7569,
      "updur": 7570,
      "ĠpÃ¢ye": 7571,
      "ĠVeh": 7572,
      "ĠNoÄŁ": 7573,
      "Ã¢dem": 7574,
      "ĠyÃ¼zÃ¼": 7575,
      "ĠelÃ§": 7576,
      "bede": 7577,
      "Ġark": 7578,
      "Ġbulan": 7579,
      "ĠistiÄŁ": 7580,
      "ĠbÃ¢ÄŁlÄ±": 7581,
      "ĠcihÄģn": 7582,
      "ĠperÃ®ÅŁÃ¢n": 7583,
      "Ġdiyerek": 7584,
      "ĠGÃ¶rin": 7585,
      "ĠyÄ±lda": 7586,
      "ĠbalÄ±ÄŁÄ±": 7587,
      "ĠMevlev": 7588,
      "ĠmÃ¼ftÃ®": 7589,
      "ĠmÃ¼sellem": 7590,
      "ĠSahÃ¢be": 7591,
      "yÃ¢s": 7592,
      "Ġmal": 7593,
      "ĠdÃ®dÃ¢r": 7594,
      "dis": 7595,
      "laruÃ±": 7596,
      "Ã¢lÄ±k": 7597,
      "ĠSadr": 7598,
      "abb": 7599,
      "Ã¢kÃ®n": 7600,
      "ĠDÃ¢m": 7601,
      "miÅŁlerdir": 7602,
      "ĠFikr": 7603,
      "ĠÃĤy": 7604,
      "ĠarzÄ±": 7605,
      "Ġverd": 7606,
      "iyyÃ»n": 7607,
      "ĠenvÃ¢r": 7608,
      "Ġmurassa": 7609,
      "ĠHamza": 7610,
      "Ġtasavv": 7611,
      "Ġvasat": 7612,
      "ĠÅŁÃ¼ret": 7613,
      "ĠmÃ¢ni": 7614,
      "ĠhÃ¼rr": 7615,
      "oban": 7616,
      "dÃ¼p": 7617,
      "ÅŁet": 7618,
      "Ġvusl": 7619,
      "akab": 7620,
      "ĠÅŁoÄŁra": 7621,
      "ĠyÃ¼zlÃ¼": 7622,
      "asÄ±dÄ±r": 7623,
      "Ġbenzer": 7624,
      "Ä«m": 7625,
      "Å«s": 7626,
      "Ġharemi": 7627,
      "Ġsarp": 7628,
      "ĠbÃ¢zergÃ¢n": 7629,
      "ĠotaÄŁ": 7630,
      "ĠtavÃ¢f": 7631,
      "ĠgÃ¶Ã±lÃ¼m": 7632,
      "ĠnisvÃ¢n": 7633,
      "ĠzahÃ®re": 7634,
      "Ġarabalar": 7635,
      "ĠÅŁekilde": 7636,
      "',": 7637,
      "95": 7638,
      "ĠkÃ¼": 7639,
      "mec": 7640,
      "ĠBat": 7641,
      "imÃ¢d": 7642,
      "Ġpara": 7643,
      "ĠetdirÃ¼p": 7644,
      "ĠRodos": 7645,
      "ĠPara": 7646,
      "Ġgerden": 7647,
      "ĠtahtÃ¢nÃ®": 7648,
      "Ġbulunur": 7649,
      "ĠkÃ¢rbÃ¢n": 7650,
      "ĠzemÃ®ne": 7651,
      "Ġnevbet": 7652,
      "ĠÃ§Ã¼nki": 7653,
      "perde": 7654,
      "Ġanlat": 7655,
      "Ġlezzet": 7656,
      "ĠFÃ¢tiha": 7657,
      "ĠrÄ±hlet": 7658,
      "ĠØ§ØªØ¨Ø¹ÙĪÙĨ": 7659,
      "70": 7660,
      "erÃ¢t": 7661,
      "ĠbÃ®mÃ¢r": 7662,
      "aklar": 7663,
      "ilÃ»n": 7664,
      "ilmek": 7665,
      "ilmiÅŁtir": 7666,
      "ĠcÃ¢h": 7667,
      "ĠaÊ»": 7668,
      "Ġnuk": 7669,
      "ĠnÃ¼c": 7670,
      "Ã¼rdi": 7671,
      "Ã¢lÃ»d": 7672,
      "Ã¢ket": 7673,
      "Äģlem": 7674,
      "ĠdevÃ¢": 7675,
      "ĠihrÃ¢k": 7676,
      "ĠØ¬": 7677,
      "Ġhemen": 7678,
      "ĠisyÃ¢n": 7679,
      "Ġirdi": 7680,
      "Ġ350": 7681,
      "Ġ353": 7682,
      "Ġmecmu": 7683,
      "ĠkapularÄ±": 7684,
      "Ġpeyv": 7685,
      "ĠoÄŁl": 7686,
      "ĠHilÃ¢l": 7687,
      "ĠKayser": 7688,
      "ĠEdrine": 7689,
      "ĠUmÃ»m": 7690,
      "ĠyazÄ±lmasÄ±": 7691,
      "ammÃ¼l": 7692,
      "ĠNemrÃ»d": 7693,
      "IR": 7694,
      "]**": 7695,
      "arÃ®": 7696,
      "anda": 7697,
      "Ġhap": 7698,
      "ĠhaÃ§": 7699,
      "ĠÅŁur": 7700,
      "ĠnÃ¼f": 7701,
      "ĠHele": 7702,
      "iyÃ¢zÃ®": 7703,
      "Ã¢hu": 7704,
      "aÅŁÄ±k": 7705,
      "ĠYedi": 7706,
      "ĠÃĤdil": 7707,
      "ĠbaÅŁÄ±n": 7708,
      "ĠaÄŁÄ±z": 7709,
      "ĠmakÃ¢mÄ±": 7710,
      "Ġokuy": 7711,
      "ĠizÃ¢m": 7712,
      "Ġsadr": 7713,
      "ĠMeden": 7714,
      "ĠÃ¢sumÃ¢na": 7715,
      ".)": 7716,
      "94": 7717,
      "kay": 7718,
      "ĠgÃ¼c": 7719,
      "Ġzik": 7720,
      "indedir": 7721,
      "idÃ¼p": 7722,
      "ĠRÄ±za": 7723,
      "eciyÃ¢n": 7724,
      "Ä±ÄŁÄ±n": 7725,
      "ĠikrÃ¢m": 7726,
      "ĠmÃ¼bÃ®n": 7727,
      "ĠÙħØ³Øª": 7728,
      "ĠYahÃ»d": 7729,
      "Ġsizi": 7730,
      "ĠÃ¶zge": 7731,
      "ĠminÃ¢reli": 7732,
      "Ġeglen": 7733,
      "ĠKÄ±btÃ®": 7734,
      "ĠgÃ¶nderildiÄŁi": 7735,
      "ĠBoÄŁdan": 7736,
      "ĠsÃ¢Ê»atde": 7737,
      "Ġzeyt": 7738,
      "ĠAnatolu": 7739,
      "BaÄŁ": 7740,
      "pÃ»ÅŁ": 7741,
      "Ġâ": 7742,
      "Ġsom": 7743,
      "ĠBede": 7744,
      "ĠHÃ¼r": 7745,
      "ĠÄ°mÃ¢diyye": 7746,
      "ezÃ®r": 7747,
      "ĠFa": 7748,
      "medin": 7749,
      "Ê»nÃ®": 7750,
      "Ġsengi": 7751,
      "esidir": 7752,
      "Ġharc": 7753,
      "Ġbizden": 7754,
      "Ġend": 7755,
      "Ġsenede": 7756,
      "Ġaskerin": 7757,
      "ĠaÅŁk": 7758,
      "Ã»fÃ®": 7759,
      "ĠmÃ¼rd": 7760,
      "acaktÄ±r": 7761,
      "ĠdollÃ¢b": 7762,
      "ĠolmaÄŁile": 7763,
      "ĠEkseriyyÃ¢": 7764,
      "ĠÃ¶rnek": 7765,
      "ĠkÃ¼tÃ¼b": 7766,
      "ĠMektub": 7767,
      "Ġ[[(-)": 7768,
      "Ġpalanka": 7769,
      "Ø±Ø§Ø·": 7770,
      "87": 7771,
      "lden": 7772,
      "muz": 7773,
      "zÃ®m": 7774,
      "ĠdÃ¢d": 7775,
      "ÄŁÃ¼": 7776,
      "aks": 7777,
      "iyen": 7778,
      "Ã¢hi": 7779,
      "Ã¢hiyye": 7780,
      "immakÃ¢m": 7781,
      "Ġkalmayup": 7782,
      "Ġeylesem": 7783,
      "Ġince": 7784,
      "Ġkurt": 7785,
      "ĠUÅŁ": 7786,
      "ÃĤR": 7787,
      "ĠbulunduÄŁ": 7788,
      "ĠdeÄŁillerdir": 7789,
      "ĠkÃ¶ÅŁe": 7790,
      "ĠHayret": 7791,
      "ĠsevÃ¢d": 7792,
      "Ġmisilli": 7793,
      "bahÃ¢r": 7794,
      "ĠBehiÅŁ": 7795,
      "ĠtahkÃ®k": 7796,
      "96": 7797,
      "ĠbÃ¢nÃ®si": 7798,
      "ĠyÃ¢k": 7799,
      "ĠfÃ®l": 7800,
      "ĠrikÃ¢b": 7801,
      "Ä±lup": 7802,
      "Ã¢za": 7803,
      "ĠZi": 7804,
      "Ġ---": 7805,
      "Ã»sÃ®": 7806,
      "Ġbeyne": 7807,
      "Ġferz": 7808,
      "ĠgÃ¶zlerÃ¼m": 7809,
      "lendir": 7810,
      "Ġhakikat": 7811,
      "ĠcevÃ¢mi": 7812,
      "ĠMÃ¼derr": 7813,
      "ĠHindÃ®": 7814,
      "ĠsaÄŁÃ®r": 7815,
      "ĠGÃ¶zlerÃ¼m": 7816,
      "ĠTerk": 7817,
      "ÙĤÙĬÙħ": 7818,
      "ĠVarat": 7819,
      "alebe": 7820,
      "ĠmÃ¼derrisi": 7821,
      "ĠKÄ±zÄ±lbaÅŁ": 7822,
      "ĠasÄ±rda": 7823,
      "rul": 7824,
      "ĠÎ": 7825,
      "ÅŁik": 7826,
      "ĠtÃ¢m": 7827,
      "akki": 7828,
      "imme": 7829,
      "Ã¢vend": 7830,
      "ĠgÃ¼lle": 7831,
      "ĠferÃ¢ÄŁ": 7832,
      "ĠBaÊ»dehu": 7833,
      "ĠAydÄ±n": 7834,
      "ĠbaÄŁlan": 7835,
      "Ġmuhtelif": 7836,
      "Ġtutar": 7837,
      "ĠebyÃ¢t": 7838,
      "ĠgarÃ®be": 7839,
      "Ġbildirilmesi": 7840,
      "ĠihtimÃ¢m": 7841,
      "ĠrÄ±zÃ¢": 7842,
      "ĠKalmÄ±k": 7843,
      "ĠÙħØ³ØªÙĤÙĬÙħ": 7844,
      "cin": 7845,
      "fÃ»r": 7846,
      "ĠhÃ¢d": 7847,
      "ĠMeger": 7848,
      "Ġbiraz": 7849,
      "ĠKadÄ±": 7850,
      "Ġbuz": 7851,
      "Ġolmada": 7852,
      "Ġderken": 7853,
      "Ġmahzen": 7854,
      "Ã®lÃ»": 7855,
      "Ä±yle": 7856,
      "eyhÃ¢t": 7857,
      "ĠharÃ¢m": 7858,
      "ĠÃ¢hÄ±r": 7859,
      "ĠØŃ": 7860,
      "ĠMÄ±sr": 7861,
      "Ġá¸«Ã¼sn": 7862,
      "Ø§Ø¡": 7863,
      "ĠmÃ¼slÃ¼manlarÄ±n": 7864,
      "ĠmikdÃ¢r": 7865,
      "lÄ±ÄŁÄ±n": 7866,
      "ĠimÃ¢reti": 7867,
      "ĠsavaÅŁ": 7868,
      "ĠCezÃ®re": 7869,
      "ĠMaÄŁrib": 7870,
      "ĠØµØ±Ø§Ø·": 7871,
      "ĠkifÃ¢yet": 7872,
      "80": 7873,
      "Biz": 7874,
      "ciz": 7875,
      "Ã»lesi": 7876,
      "Ġzeyl": 7877,
      "Ġtarh": 7878,
      "iftÃ¢r": 7879,
      "Ã¼Ã±de": 7880,
      "Ġbeyn": 7881,
      "ĠÃ§ekerek": 7882,
      "ĠikbÃ¢l": 7883,
      "ĠkulaÄŁ": 7884,
      "ĠbulunduÄŁu": 7885,
      "Ġminnet": 7886,
      "ĠÅŀerÃ¢iti": 7887,
      "Ġlevh": 7888,
      "ĠHÃ¢tÃ»n": 7889,
      "Ġettikleri": 7890,
      "ĠnumarasÄ±nÄ±": 7891,
      "NazÃ®re": 7892,
      "ĠGÃ¼zel": 7893,
      "Ġmufassal": 7894,
      "Ġadreslerinin": 7895,
      "belÃ¢": 7896,
      "lÃ¢s": 7897,
      "lÃ¢sÄ±": 7898,
      "liye": 7899,
      "Ġ)": 7900,
      "ĠbÃ¢c": 7901,
      "ĠbÃ®rÃ»n": 7902,
      "Ġhub": 7903,
      "ĠgÃ¼Ã§": 7904,
      "ĠsÃ¢fÃ®": 7905,
      "Ġait": 7906,
      "ĠHÄ±t": 7907,
      "Ã®nÃ¢": 7908,
      "ĠÅŀab": 7909,
      "ĠRu": 7910,
      "afÃ¢t": 7911,
      "Ä«z": 7912,
      "ĠazÃ®me": 7913,
      "Ġistir": 7914,
      "Ġtale": 7915,
      "Ġmuhterem": 7916,
      "Ġ(-)]]": 7917,
      "ĠolmuÅŁlardÄ±r": 7918,
      "ĠSÃ¼leymÃ¢nÃ®": 7919,
      "ĠmihrÃ¢bÄ±": 7920,
      "Ġá¸¤ay": 7921,
      "ĠfirÃ¢vÃ¢n": 7922,
      "ĠyaylasÄ±": 7923,
      "ĠÃ¢vÃ¢re": 7924,
      "ĠmÃ¼ÅŁgÃ®n": 7925,
      "Ġmuzaffer": 7926,
      "ĠDÃ®nÃ®": 7927,
      "hassa": 7928,
      "ĠbeÃ®zer": 7929,
      "cet": 7930,
      "ĠKaf": 7931,
      "ĠKelÃ¢m": 7932,
      "aÅŁÄ±sÄ±": 7933,
      "Ã¢yÃ¢t": 7934,
      "adÄ±k": 7935,
      "ĠTÃ®r": 7936,
      "ĠyÃ¼zine": 7937,
      "Ġkaran": 7938,
      "ĠÃĤzer": 7939,
      "akkak": 7940,
      "Ġá¸«ar": 7941,
      "ĠbegÃ¼m": 7942,
      "ĠÄŁay": 7943,
      "ĠyazÄ±": 7944,
      "ĠiseÃ±": 7945,
      "Ġtemen": 7946,
      "ĠbahÃ¢dÄ±r": 7947,
      "ĠÄŁamda": 7948,
      "Ġtebdil": 7949,
      "ĠGeldi": 7950,
      "ĠkÄ±smÄ±": 7951,
      "ĠlÃ¢zÄ±mdÄ±r": 7952,
      "ĠHaziran": 7953,
      "Ø´Ø§Ø¡": 7954,
      "ĠEdebiyat": 7955,
      "ĠnÃ¢lÃ¢n": 7956,
      "ĠÃ§ocuk": 7957,
      "ĠÃ¢rÃ¢ste": 7958,
      "56": 7959,
      "77": 7960,
      "MÃ¼": 7961,
      "gisi": 7962,
      "miyor": 7963,
      "ĠkÃ¢zÃ®": 7964,
      "ans": 7965,
      "Ġhor": 7966,
      "ennem": 7967,
      "ĠÅŁÃ»h": 7968,
      "Ġcib": 7969,
      "Ġniyyet": 7970,
      "ĠMÃ¼l": 7971,
      "Ä°R": 7972,
      "ĠÃ§orb": 7973,
      "Ġederim": 7974,
      "Ġbenef": 7975,
      "alarÄ±nÄ±n": 7976,
      "maga": 7977,
      "Ġatlas": 7978,
      "ĠaÄŁacÄ±": 7979,
      "Ä±ÄŁÄ±ndan": 7980,
      "ĠdeÄŁiÅŁ": 7981,
      "ĠisÃ¢bet": 7982,
      "ĠbinÃ¢larÄ±": 7983,
      "Ġseyis": 7984,
      "ĠdÃ¢g": 7985,
      "Ġdurup": 7986,
      "Ġkendisine": 7987,
      "Ġgamze": 7988,
      "ĠÙĬØ´Ø§Ø¡": 7989,
      "Ġoturak": 7990,
      "ĠmÃ¼nhezim": 7991,
      "ĠCezÃ¢yir": 7992,
      "Ġduhter": 7993,
      "ĠgÄ±lÃ¢l": 7994,
      "ĠMerhÃ»m": 7995,
      "Ġpapas": 7996,
      "ĠÅŀubat": 7997,
      "bÃ¢ÅŁ": 7998,
      "dÃ»b": 7999,
      "hÃ»n": 8000,
      "ko": 8001,
      "kul": 8002,
      "kÃ¼ÅŁ": 8003,
      "tÄģn": 8004,
      "Ġvur": 8005,
      "ĠvÃ¢kÃ®": 8006,
      "Ġveh": 8007,
      "Ġbirin": 8008,
      "ĠSÃ¼b": 8009,
      "ĠSÃ¢lis": 8010,
      "ĠfiÄŁ": 8011,
      "ĠVer": 8012,
      "ĠDiz": 8013,
      "ĠGen": 8014,
      "Ê»at": 8015,
      "Ġittih": 8016,
      "ĠdeverÃ¢n": 8017,
      "Ġmahalden": 8018,
      "ĠUlÃ»m": 8019,
      "ĠazÃ®mi": 8020,
      "á¸¥r": 8021,
      "eÄŁir": 8022,
      "ĠhÃ¼snÃ¼n": 8023,
      "ĠkesÃ¼p": 8024,
      "Ġekser": 8025,
      "Ġzamanda": 8026,
      "ĠkaÅŁd": 8027,
      "Ġsebebiyle": 8028,
      "ÄģyÄ«": 8029,
      "Ġnahl": 8030,
      "ĠkarÄ±ndaÅŁ": 8031,
      "ĠfÃ¼rÃ»ht": 8032,
      "Ã§eÅŁme": 8033,
      "ĠKebÃ®r": 8034,
      "ĠlazÄ±mdÄ±r": 8035,
      "ĠØ³Ø¨ÙĬÙĦ": 8036,
      "vasf": 8037,
      "ĠÄ±ÅŁ": 8038,
      "ĠbÄ±Ã§": 8039,
      "ĠgÃ»ÅŁ": 8040,
      "ĠnÄģ": 8041,
      "ĠKef": 8042,
      "ĠfÄ±k": 8043,
      "ĠVenedik": 8044,
      "ĠDur": 8045,
      "Ä±yÃ§Ã¼n": 8046,
      "ĠÃĤÅŁÄ±k": 8047,
      "meti": 8048,
      "Ġarada": 8049,
      "ĠmakÃ»lesi": 8050,
      "Ġyolu": 8051,
      "ĠminhÃ¼m": 8052,
      "ĠhattÄ±": 8053,
      "dÄ±klarÄ±": 8054,
      "ĠmihrÃ¢bdÄ±r": 8055,
      "ĠhuzÃ»runa": 8056,
      "ĠMedrese": 8057,
      "muharrir": 8058,
      "vÄģn": 8059,
      "yen": 8060,
      "desi": 8061,
      "ĠhÃ¼d": 8062,
      "ĠoluÅŁ": 8063,
      "ĠcedÃ®d": 8064,
      "eber": 8065,
      "olÄ±": 8066,
      "ĠitÃ¢": 8067,
      "ĠayÄ±r": 8068,
      "meyn": 8069,
      "ĠmukÃ¢bil": 8070,
      "ĠSÃ¼leymÃ¢niyye": 8071,
      "ĠÃ¢teÅŁe": 8072,
      "Ġburada": 8073,
      "ĠgÃ¶rinÃ¼r": 8074,
      "ĠØ§ÙĩØ¯ÙĥÙħ": 8075,
      "Ġbeled": 8076,
      "cenÃ¢b": 8077,
      "71": 8078,
      "91": 8079,
      "layan": 8080,
      "Ã¢ndur": 8081,
      "Ġemel": 8082,
      "ĠsÃ¼b": 8083,
      "ĠHz": 8084,
      "ĠSÃ®ne": 8085,
      "ĠfÃ¢r": 8086,
      "ĠÃ¼sl": 8087,
      "isinde": 8088,
      "mezem": 8089,
      "beden": 8090,
      "Å«z": 8091,
      "Ä±ÄŁa": 8092,
      "lÄ±klar": 8093,
      "ĠkalÊ»anÄ±n": 8094,
      "Ġsemen": 8095,
      "Ġkomaz": 8096,
      "ĠyeniÃ§er": 8097,
      "ĠBurs": 8098,
      "hangi": 8099,
      "ĠdefterdÃ¢r": 8100,
      "ĠlatÃ®fdir": 8101,
      "Ġkubbesi": 8102,
      "43": 8103,
      "siy": 8104,
      "ĠkezÃ¢": 8105,
      "ĠvÃ¢fir": 8106,
      "Ġhec": 8107,
      "ĠsÃ»z": 8108,
      "Ã»me": 8109,
      "ÄŁim": 8110,
      "Ã¶s": 8111,
      "ĠdemiÅŁler": 8112,
      "Ä°z": 8113,
      "Ġfas": 8114,
      "ĠfÃ¢nÃ®": 8115,
      "Ã®mi": 8116,
      "elesi": 8117,
      "ĠgÃ¶rmÃ¼ÅŁ": 8118,
      "......": 8119,
      "Ġmeyy": 8120,
      "ciler": 8121,
      "ĠmÃ¼ÅŁÃ¢vere": 8122,
      "ĠsemÃ¢ya": 8123,
      "Ġdegil": 8124,
      "ĠhazÄ±r": 8125,
      "ĠHalk": 8126,
      "ĠtezyÃ®n": 8127,
      "ĠKÃ¼rd": 8128,
      "ĠgÃ¢zÃ®ler": 8129,
      "ĠÃ¼stindedÃ¼r": 8130,
      "ĠgÃ¼ftÃ¢r": 8131,
      "ĠcÃ¢riye": 8132,
      "ĠBinÃ¢enaleyh": 8133,
      "sÄ±b": 8134,
      "Ġbay": 8135,
      "ĠbÃ¢hir": 8136,
      "ĠmiftÃ¢h": 8137,
      "Ġhes": 8138,
      "Ã¢meti": 8139,
      "ĠzÃ¢lim": 8140,
      "ĠÃ§an": 8141,
      "ĠfÃ¼nÃ»n": 8142,
      "ĠTaht": 8143,
      "ÄģÊ¿": 8144,
      "rist": 8145,
      "ĠiÅŁÃ¢ret": 8146,
      "ĠazÃ®mler": 8147,
      "ĠgÃ¶zler": 8148,
      "ĠyaÊ»nÃ®": 8149,
      "ĠmanastÄ±r": 8150,
      "ĠmÃ¼hÃ¼r": 8151,
      "ĠmÃ¼mt": 8152,
      "ĠÄ°bni": 8153,
      "ĠemÃ¢net": 8154,
      "Ġkitab": 8155,
      "Ġeksik": 8156,
      "ĠokunaklÄ±": 8157,
      "ĠNisan": 8158,
      "ĠNoÄŁay": 8159,
      "42": 8160,
      "hev": 8161,
      "mÃ®d": 8162,
      "sÃ¢h": 8163,
      "Ã»sa": 8164,
      "ĠtÃ®z": 8165,
      "lerce": 8166,
      "ĠolmasÄ±n": 8167,
      "ĠaldÄ±ÄŁÄ±": 8168,
      "Ã¢neler": 8169,
      "ĠardÄ±": 8170,
      "ĠÃ¼stÃ¼ne": 8171,
      "ĠyolÄ±nda": 8172,
      "ĠsiyÃ¢set": 8173,
      "ĠKarah": 8174,
      "ĠKarÅŁÄ±": 8175,
      "ĠmÃ¼slÃ¼manlar": 8176,
      "ĠâĢ¦âĢ¦âĢ¦âĢ¦âĢ¦(": 8177,
      "ĠÄ°smÃ¢il": 8178,
      "allahu": 8179,
      "reddin": 8180,
      "ĠmeÅŁgÃ»l": 8181,
      "ĠAfganistan": 8182,
      "uÄ±ndan": 8183,
      "ĠÅŁef": 8184,
      "ĠnÃ¢n": 8185,
      "ahÃ¢": 8186,
      "emÃ¼z": 8187,
      "ĠHiÃ§": 8188,
      "ĠSab": 8189,
      "Ä°l": 8190,
      "ĠlÃ¼z": 8191,
      "ĠZÃ¼b": 8192,
      "Ø§Ùħ": 8193,
      "dÃ¼ler": 8194,
      "Ġinh": 8195,
      "ĠÅŁehrinin": 8196,
      "ĠÙĩ": 8197,
      "ĠÃ¢heste": 8198,
      "Ġertesi": 8199,
      "ĠtaÅŁr": 8200,
      "ĠÄ°sÃ¢": 8201,
      "Ġyana": 8202,
      "ĠperÃ®": 8203,
      "ĠpÃ¢diÅŁÃ¢ha": 8204,
      "ĠpÃ¢yesiyle": 8205,
      "ĠÃĩÃ¼nki": 8206,
      "Ġtelh": 8207,
      "ĠbeÄŁleri": 8208,
      "ĠMansÃ»r": 8209,
      "ĠcellÃ¢d": 8210,
      "ĠrÃ¼zgÃ¢r": 8211,
      "ĠBiÃ±": 8212,
      "Ġkahve": 8213,
      "ĠraÄŁmen": 8214,
      "ĠSÃ¼nbÃ¼l": 8215,
      "86": 8216,
      "kÃ¢b": 8217,
      "nisa": 8218,
      "rÃ¢b": 8219,
      "ĠhuÅŁ": 8220,
      "ĠolÄ±nca": 8221,
      "ĠyaÄŁÄ±": 8222,
      "Ġanlam": 8223,
      "usrev": 8224,
      "ĠiÅŁler": 8225,
      "ĠgÃ¶nÃ§e": 8226,
      "ĠDerÃ»n": 8227,
      "Ġiderse": 8228,
      "Ġmektep": 8229,
      "Ġbuyururlar": 8230,
      "ĠÅŀerif": 8231,
      "ĠdÃ¶nem": 8232,
      "Ġvazife": 8233,
      "eccih": 8234,
      "ĠnÃ¼sha": 8235,
      "ĠsÃ¼rette": 8236,
      "ĠesvÃ¢k": 8237,
      "Ġsikke": 8238,
      "Bel": 8239,
      "bin": 8240,
      "veti": 8241,
      "Ġâģ¸": 8242,
      "Ġke": 8243,
      "dey": 8244,
      "ĠBab": 8245,
      "Ã±ra": 8246,
      "Ä±klÄ±": 8247,
      "Ġderde": 8248,
      "ĠanuÄŁ": 8249,
      "ĠyÃ¼zÃ¼nden": 8250,
      "ĠgÃ¼nÃ¢h": 8251,
      "Å«p": 8252,
      "ĠmakÅŁ": 8253,
      "ĠArslan": 8254,
      "Ġedemez": 8255,
      "Ġtabi": 8256,
      "ĠruhÅŁÃ¢r": 8257,
      "Ø§Ø¯": 8258,
      "rÄ±a": 8259,
      "Ġlevend": 8260,
      "Ġgezer": 8261,
      "ĠÃ¶zellik": 8262,
      "ĠBekir": 8263,
      "ĠGÃ¼lÅŁenÃ®": 8264,
      "ĠÃ§avuÅŁlar": 8265,
      "ĠPaÅŁazÃ¢de": 8266,
      "ĠocaÄŁ": 8267,
      "ĠmÃ¼bÃ¢ÅŁeret": 8268,
      "ĠMektublarÄ±n": 8269,
      "EY": 8270,
      "ban": 8271,
      "rÄ±s": 8272,
      "vi": 8273,
      "viye": 8274,
      "Ã®let": 8275,
      "Ã¢nuÃ±": 8276,
      "ĠgeÅŁt": 8277,
      "ĠnÃ®l": 8278,
      "ĠBol": 8279,
      "Ã¼rse": 8280,
      "iÅŁret": 8281,
      "ikÃ®": 8282,
      "ĠFÃ»n": 8283,
      "Ġmahkeme": 8284,
      "ĠdilÃ¢": 8285,
      "Ġarslan": 8286,
      "Ġazamet": 8287,
      "Ġkapan": 8288,
      "ĠÃ¢humdan": 8289,
      "ĠolduÄŁum": 8290,
      "ĠgirÃ¢n": 8291,
      "Ġgirdi": 8292,
      "ĠgiriÅŁ": 8293,
      "ĠgeÃ§in": 8294,
      "versit": 8295,
      "ĠtabÃ®b": 8296,
      "Ġtabya": 8297,
      "ĠÅŀeyhÃ¼": 8298,
      "ĠOsmÃ¢nlÄ±": 8299,
      "ĠteÅŁebbÃ¼s": 8300,
      "Ġfelekde": 8301,
      "ĠyÃ¼kÃ¼": 8302,
      "ĠmÃ¼nÃ¢sib": 8303,
      "ĠHulÃ¢sa": 8304,
      "ĠDimyÃ¢t": 8305,
      "ĠUzun": 8306,
      "49": 8307,
      "etiyle": 8308,
      "ĠnÃ®m": 8309,
      "imÃ¢l": 8310,
      "ĠKol": 8311,
      "Ã¢yin": 8312,
      "ĠTed": 8313,
      "Ġrab": 8314,
      "olni": 8315,
      "ĠZÃ¼": 8316,
      "Å«b": 8317,
      "ĠhargÃ¢h": 8318,
      "Ġ**[": 8319,
      "ĠaÄŁy": 8320,
      "ĠolduÄŁumuz": 8321,
      "ĠgiriftÃ¢r": 8322,
      "ĠgeÃ§miÅŁ": 8323,
      "ĠyÃ¢ruÃ±": 8324,
      "Ġ351": 8325,
      "ĠmÃ¼tefer": 8326,
      "Ġ360": 8327,
      "ĠaslÄ±": 8328,
      "ĠrefÃ®k": 8329,
      "ĠâĢ¦âĢ¦âĢ¦âĢ¦âĢ¦âĢ¦..": 8330,
      "devs": 8331,
      "Ġcild": 8332,
      "ĠOrta": 8333,
      "ĠilÃ¢hÃ®": 8334,
      "ĠsandÃ»k": 8335,
      "edir": 8336,
      "mÃ¢ye": 8337,
      "viz": 8338,
      "ÃĽ": 8339,
      "ĠÃ¼lfet": 8340,
      "erin": 8341,
      "arka": 8342,
      "Ġyav": 8343,
      "emÃ¢n": 8344,
      "ĠSÃ¢kÃ®": 8345,
      "ekÃ®m": 8346,
      "ĠVÃ¢": 8347,
      "ĠNu": 8348,
      "ĠNasÄ±l": 8349,
      "ĠanbÃ¢r": 8350,
      "uÅŁlat": 8351,
      "Ġsenesi": 8352,
      "Ã¢ve": 8353,
      "leyin": 8354,
      "Ġbill": 8355,
      "Ġilmi": 8356,
      "ĠmedÃ¢ris": 8357,
      "ĠArz": 8358,
      "ĠArafÃ¢t": 8359,
      "ĠSeni": 8360,
      "ĠsularÄ±": 8361,
      "niversit": 8362,
      "Ġmilyon": 8363,
      "ĠmanÅŁ": 8364,
      "ĠKÃ¼rdi": 8365,
      "gÃ¼zÃ¢r": 8366,
      "Ġhayretde": 8367,
      "ĠmeÅŁrÃ»bÃ¢t": 8368,
      "ĠÅŀÃ®rÃ®n": 8369,
      "ĠBayram": 8370,
      "ĠMefÃ¢fÃ®lÃ¼n": 8371,
      "ĠsengistÃ¢n": 8372,
      "lÃ®d": 8373,
      "ÅŁÃ»f": 8374,
      "def": 8375,
      "Ã¼nle": 8376,
      "medik": 8377,
      "ĠSip": 8378,
      "ĠGay": 8379,
      "ĠGice": 8380,
      "ĠCibr": 8381,
      "Ġmerg": 8382,
      "Ġtarafeyn": 8383,
      "ĠMÄ±srÃ®": 8384,
      "ĠGÃ¶ster": 8385,
      "ĠaskerÃ®": 8386,
      "ĠÃ¼stÃ¼nde": 8387,
      "Ġedile": 8388,
      "likÃ¢": 8389,
      "Ġizdi": 8390,
      "ĠecdÃ¢d": 8391,
      "ĠdÃ¶rdÃ¼ncÃ¼": 8392,
      "ĠSebeb": 8393,
      "Ġbasup": 8394,
      "Ġonundur": 8395,
      "ĠDiÄŁer": 8396,
      "ĠmÃ¼teveccih": 8397,
      "ezzin": 8398,
      "ĠHusrev": 8399,
      "ĠhedÃ¢yÃ¢lar": 8400,
      "ĠÅŀevvÃ¢l": 8401,
      "75": 8402,
      "85": 8403,
      "mÃ®r": 8404,
      "erÃ®": 8405,
      "Ä±nur": 8406,
      "Ġdokuz": 8407,
      "Ã¢rÄ±z": 8408,
      "illeri": 8409,
      "ĠÅŁub": 8410,
      "Ġnik": 8411,
      "eyb": 8412,
      "ĠKabr": 8413,
      "ulan": 8414,
      "umÃ¢r": 8415,
      "ĠRÄ±dvÃ¢n": 8416,
      "ĠFÃ¢tÄ±m": 8417,
      "ĠherÃ®f": 8418,
      "ĠgÃ¶rÃ¼ÅŁ": 8419,
      "ĠLÃ¢mi": 8420,
      "igÃ¢r": 8421,
      "ĠSÃ¼veys": 8422,
      "ĠkÃ¶s": 8423,
      "ĠmÃ¼hr": 8424,
      "ĠacÃ®b": 8425,
      "ĠBizim": 8426,
      "ĠhaftalÄ±k": 8427,
      "Ġoturup": 8428,
      "ĠBektaÅŁ": 8429,
      "ĠtÄ±fl": 8430,
      "ĠTefsÃ®r": 8431,
      "ĠuÄŁur": 8432,
      "':": 8433,
      "gÃ¶r": 8434,
      "kede": 8435,
      "malar": 8436,
      "zÃ¢n": 8437,
      "ĠÃ¢d": 8438,
      "Ä±Ä±": 8439,
      "Ġgiz": 8440,
      "Ġsam": 8441,
      "Ä±ndÄ±": 8442,
      "Ã¢rik": 8443,
      "ura": 8444,
      "Ã¢hidÃ¢": 8445,
      "ima": 8446,
      "ĠSafÃ¢": 8447,
      "ehir": 8448,
      "ĠTrablus": 8449,
      "ĠgÃ¶m": 8450,
      "Ġeteg": 8451,
      "idde": 8452,
      "Ã®mÃ¢n": 8453,
      "ĠcÃ¢na": 8454,
      "ĠØ´": 8455,
      "Ġkulu": 8456,
      "Ġmukayy": 8457,
      "ĠBaÅŁmuharrir": 8458,
      "ĠdÃ¼kkÃ¢nlarÄ±n": 8459,
      "Ġumar": 8460,
      "ĠabdÃ¢l": 8461,
      "ĠkalmÄ±ÅŁdÄ±r": 8462,
      "ĠgÃ¶rÃ¼nÃ¼r": 8463,
      "ĠÅŁecÃ®": 8464,
      "ĠgeÃ§irÃ¼p": 8465,
      "ĠihtiyÃ¢c": 8466,
      "ĠreyhÃ¢n": 8467,
      "ĠCirce": 8468,
      "61": 8469,
      "72": 8470,
      "EV": 8471,
      "mis": 8472,
      "nÃ»": 8473,
      "Ġket": 8474,
      "ĠBerek": 8475,
      "ĠÃ¼ÅŁ": 8476,
      "idÃ®": 8477,
      "ĠFet": 8478,
      "iÃ§ek": 8479,
      "ĠLon": 8480,
      "ĠaÄŁac": 8481,
      "iyetin": 8482,
      "Ġirf": 8483,
      "ĠurdÄ±": 8484,
      "ĠBunu": 8485,
      "ĠCemÃ¢l": 8486,
      "Ġgitmek": 8487,
      "Ġkesret": 8488,
      "Ġoku": 8489,
      "ĠtarÃ®kat": 8490,
      "Ġsiper": 8491,
      "ĠÙĬÙĩØ¯": 8492,
      "ĠMahal": 8493,
      "ĠvaroÅŁu": 8494,
      "ĠDÃ¶n": 8495,
      "ĠErmenÃ®": 8496,
      "ĠMollÃ¢": 8497,
      "ĠNetÃ®ce": 8498,
      "93": 8499,
      "Melik": 8500,
      "cÃ¢mi": 8501,
      "gal": 8502,
      "nÃ¼Ã±": 8503,
      "ĨĴ)": 8504,
      "ĠhÄ±s": 8505,
      "ĠgÃ¢lib": 8506,
      "ĠsÃ¶": 8507,
      "ĠsÃ¢bÄ±k": 8508,
      "ĠacÄ±": 8509,
      "Ġnut": 8510,
      "ĠnÃ¼h": 8511,
      "ĠAsl": 8512,
      "ĠSafer": 8513,
      "ibb": 8514,
      "ĠÄ°der": 8515,
      "ikÃ¢d": 8516,
      "ĠDeli": 8517,
      "Ġkadr": 8518,
      "ĠÃ¶te": 8519,
      "ĠbuldÄ±": 8520,
      "sinler": 8521,
      "ĠsÃ¼re": 8522,
      "Ġmetin": 8523,
      "Ġyakup": 8524,
      "ĠkÃ¢firleri": 8525,
      "ĠyÃ¼rÃ¼r": 8526,
      "ĠÅŁikÃ¢yet": 8527,
      "Ġmevcut": 8528,
      "ĠmÃ¼zeyyendir": 8529,
      "ĠmanzÃ»r": 8530,
      "ĠmÃ¼nÃ¢seb": 8531,
      "ĠbÃ¼nyÃ¢d": 8532,
      "kavl": 8533,
      "ĠkenarÄ±nda": 8534,
      "ĠÃ§Ã¢sÃ¢r": 8535,
      "82": 8536,
      "dÃ»d": 8537,
      "dÄģn": 8538,
      "nÃ¢dÄ±r": 8539,
      "Ġgav": 8540,
      "ĠsÃ¢k": 8541,
      "ĠsÄ±nÄ±f": 8542,
      "Ġtap": 8543,
      "ĠÅŁifÃ¢": 8544,
      "ĠcÃ¢v": 8545,
      "ĠHeyhÃ¢t": 8546,
      "ĠKÃ¢ÅŁ": 8547,
      "ĠetdÃ¼ÄŁ": 8548,
      "Ġ###": 8549,
      "ifte": 8550,
      "mÄ±ÅŁlar": 8551,
      "ĠbulmuÅŁ": 8552,
      "Å«y": 8553,
      "ĠAltÄ±": 8554,
      "ĠaÄŁzÄ±": 8555,
      "Ġbeg": 8556,
      "ĠmezbÃ¼r": 8557,
      "ĠdÃ¼ÅŁmiÅŁ": 8558,
      "lÃ¼me": 8559,
      "Ġtemel": 8560,
      "ĠsultÃ¢nÄ±m": 8561,
      "ĠÃ¼merÃ¢": 8562,
      "allÃ¢hi": 8563,
      "ĠmahbÃ»be": 8564,
      "ĠhÃ¼cÃ»m": 8565,
      "istiyan": 8566,
      "Ġcilve": 8567,
      "ĠSÄ±rf": 8568,
      "ĠgÃ¼ft": 8569,
      "ĠMatbaasÄ±": 8570,
      "Ġvuslat": 8571,
      "81": 8572,
      "tÄ±m": 8573,
      "err": 8574,
      "Ġban": 8575,
      "ĠmÃ¢der": 8576,
      "Ġidem": 8577,
      "ĠseÄŁir": 8578,
      "Ġtecr": 8579,
      "ill": 8580,
      "ĠMÃ¼z": 8581,
      "iyÃ¢m": 8582,
      "ĠSur": 8583,
      "evi": 8584,
      "ĠVE": 8585,
      "ĠTÃ¢lib": 8586,
      "ĠalÃ¢met": 8587,
      "ĠYap": 8588,
      "ĠReh": 8589,
      "ĠRÄ±z": 8590,
      "Ġkaravul": 8591,
      "Ġibt": 8592,
      "Ġkande": 8593,
      "ĠBaÊ»": 8594,
      "ĠgitdiÄŁimiz": 8595,
      "Ġdiyen": 8596,
      "ĠÃ¼mÃ®d": 8597,
      "Ġrevnak": 8598,
      "ĠacÃ®be": 8599,
      "ĠserÃ¢perde": 8600,
      "ĠdÃ¢hilinde": 8601,
      "Ġmeclisde": 8602,
      "ĠKays": 8603,
      "ĠÃ§Ã¶listÃ¢n": 8604,
      "ĠayrÄ±l": 8605,
      "ĠKabri": 8606,
      "ĠmehterhÃ¢ne": 8607,
      "ĠcezÃ®resi": 8608,
      "ĠmÃ¼nakkaÅŁ": 8609,
      "ĠmÃ¼sÃ¢fir": 8610,
      "ĠHÃ¼nkÃ¢r": 8611,
      "AY": 8612,
      "nuÃ±": 8613,
      "vÃ®n": 8614,
      "vefÃ¢": 8615,
      "Ġhende": 8616,
      "ĠsÄ±hhat": 8617,
      "ĠolaydÄ±": 8618,
      "Ġtet": 8619,
      "ĠtÄģb": 8620,
      "ĠBostÃ¢n": 8621,
      "ĠEtr": 8622,
      "Ã¢yed": 8623,
      "Ã¢deri": 8624,
      "Ġrind": 8625,
      "Ġravza": 8626,
      "ĠÅŀÃ¢fi": 8627,
      "ecik": 8628,
      "ĠbaÅŁdan": 8629,
      "Ã¢vÃ¼z": 8630,
      "ĠatÄ±": 8631,
      "ĠtahtÄ±": 8632,
      "Ġdidiler": 8633,
      "ĠÃľniversit": 8634,
      "Ġfethi": 8635,
      "Ã»tÃ®": 8636,
      "Ġhazz": 8637,
      "ĠÅŁeyhi": 8638,
      "ĠÅŁeyhÃ¼": 8639,
      "ĠÅŁanur": 8640,
      "umuza": 8641,
      "ĠmuhtevÃ®": 8642,
      "ĠEmir": 8643,
      "Ġmeft": 8644,
      "ĠSebzÃ®": 8645,
      "ĠKendÃ¼": 8646,
      "ĠRahmet": 8647,
      "feÅŁÃ¢n": 8648,
      "ĠnakkÃ¢ÅŁ": 8649,
      "ĠÃ§emende": 8650,
      "ĠkÃ¶hne": 8651,
      "bÃ¢nÄ±": 8652,
      "sÃ®l": 8653,
      "sÃ¢li": 8654,
      "vÃ¢c": 8655,
      "zÄģde": 8656,
      "Ã¢id": 8657,
      "Ġmiz": 8658,
      "ĠhÄ±n": 8659,
      "Ġtaz": 8660,
      "Ġteng": 8661,
      "alluk": 8662,
      "ĠÅŁefÃ¢": 8663,
      "Ġned": 8664,
      "ĠpadiÅŁah": 8665,
      "ĠGÃ¼": 8666,
      "Ġherhangi": 8667,
      "Ã®bÃ¢": 8668,
      "ĠÃĤf": 8669,
      "ÙĲÙĳ": 8670,
      "Ġnigeh": 8671,
      "cular": 8672,
      "ĠhÃ¼rmet": 8673,
      "ĠBakara": 8674,
      "Ġbeher": 8675,
      "ĠkezÄģ": 8676,
      "ĠMeydÃ¢n": 8677,
      "ĠraÄŁbet": 8678,
      "ĠDemirkapu": 8679,
      "ĠVilÃ¢yet": 8680,
      "ĠâĢ¦âĢ¦âĢ¦âĢ¦âĢ¦âĢ¦..(": 8681,
      "Ad": 8682,
      "sÃ¢rÃ®": 8683,
      "Ġkise": 8684,
      "Ġheng": 8685,
      "ĠfÃ¢n": 8686,
      "ĠalÄ±rlar": 8687,
      "ĠyÃ¼zÃ¼ne": 8688,
      "ĠZek": 8689,
      "Ã®bi": 8690,
      "Å«d": 8691,
      "ĠkatÄ±": 8692,
      "ĠdÃ®v": 8693,
      "Ġiddi": 8694,
      "Ġseyf": 8695,
      "ĠolmazdÄ±": 8696,
      "ĠruhbÃ¢n": 8697,
      "ĠibnÃ¼": 8698,
      "ĠMeryem": 8699,
      "ĠEnver": 8700,
      "ĠnerdÃ»b": 8701,
      "ĠAsker": 8702,
      "ĠOnun": 8703,
      "ĠFransÄ±zca": 8704,
      "panya": 8705,
      "ĠhÄ±yÃ¢bÃ¢n": 8706,
      "ĠKaÃ§an": 8707,
      "52": 8708,
      "89": 8709,
      "hac": 8710,
      "Ã£": 8711,
      "Ġgeri": 8712,
      "diÅŁ": 8713,
      "meler": 8714,
      "Ã¶p": 8715,
      "ĠSun": 8716,
      "ĠSok": 8717,
      "Ġzinde": 8718,
      "ĠÃ§Ä±n": 8719,
      "Ã®nden": 8720,
      "ĠvardÄ±kda": 8721,
      "Ã¢deti": 8722,
      "ĠeyledÃ¼k": 8723,
      "ĠverdiÄŁi": 8724,
      "Ġá¸«al": 8725,
      "ĠbizÃ¼m": 8726,
      "ĠnÃ¢mÄ±nda": 8727,
      "Ġetmesi": 8728,
      "ĠefgÃ¢n": 8729,
      "ĠhilÃ¢f": 8730,
      "ĠSebilÃ¼rreÅŁÃ¢d": 8731,
      "ĠKuddise": 8732,
      "ĠÃ¢zÃ¢de": 8733,
      "ĠciÄŁer": 8734,
      "ĠAdres": 8735,
      "Ġfikir": 8736,
      "Ayn": 8737,
      "ĠtahÅŁil": 8738,
      "cÃ¢z": 8739,
      "gel": 8740,
      "ĠmiÅŁ": 8741,
      "Ġsic": 8742,
      "ĠvedÃ¢": 8743,
      "Ã§Ã¢r": 8744,
      "ĠHemed": 8745,
      "ĠSef": 8746,
      "ĠSofya": 8747,
      "ekkÃ¼l": 8748,
      "ĠNÃ¢r": 8749,
      "ĠrÃ¢y": 8750,
      "ĠÅŀal": 8751,
      "ĠCÃ¢mÃ®": 8752,
      "ĠFaz": 8753,
      "ĠPÃ¼r": 8754,
      "ĠZir": 8755,
      "ĠZÃ¼l": 8756,
      "Ã»mu": 8757,
      "ĠbaÅŁum": 8758,
      "Å«á¹£": 8759,
      "ĠhÃ¢ki": 8760,
      "ĠbeÅŁinci": 8761,
      "Ġiderdi": 8762,
      "ĠhÃ¢ssÄ±": 8763,
      "ĠnefÃ®r": 8764,
      "ĠmeydÃ¢na": 8765,
      "ĠÅŁevket": 8766,
      "ĠfetvÃ¢": 8767,
      "ĠanlaÅŁÄ±l": 8768,
      "ĠdÃ¢meninde": 8769,
      "ĠfÃ¼tÃ»h": 8770,
      "sebÃ®l": 8771,
      "ĠÄ°drÃ®s": 8772,
      "ĠrÃ¼tbe": 8773,
      "ĠÃľniversitesi": 8774,
      "64": 8775,
      "83": 8776,
      "bÃ¢k": 8777,
      "can": 8778,
      "cesi": 8779,
      "kÄ±b": 8780,
      "mÃ¼z": 8781,
      "zÃ¢m": 8782,
      "ĠkayÄ±t": 8783,
      "ĠolasÄ±n": 8784,
      "ĠyÃ¼": 8785,
      "ĠÅŁav": 8786,
      "Ġfarz": 8787,
      "Ã®ret": 8788,
      "ĠYer": 8789,
      "Ġolunmak": 8790,
      "ĠgÃ¶ricek": 8791,
      "mezdi": 8792,
      "Ġ\\[": 8793,
      "Ġarka": 8794,
      "ĠgÃ¼ller": 8795,
      "Ġistedi": 8796,
      "Ġerkek": 8797,
      "Ã¼bÃ¼vvet": 8798,
      "ĠtaÅŁlar": 8799,
      "ĠhakÃ®kat": 8800,
      "ĠimkÃ¢n": 8801,
      "Ġperh": 8802,
      "Ġmidir": 8803,
      "ĠMeselÃ¢": 8804,
      "Ġkoma": 8805,
      "ĠmÃ¼cÃ¢hid": 8806,
      "ĠbaÄŁladÄ±": 8807,
      "Ġbedr": 8808,
      "ĠGÃ¶nlÃ¼m": 8809,
      "ĠHÃ¢kim": 8810,
      "ĠdÃ¼nyÃ¢ya": 8811,
      "Ġmuntaz": 8812,
      "ĠDÃ¼nyÃ¢": 8813,
      "ĠZeynel": 8814,
      "Karye": 8815,
      "ĠÂ«": 8816,
      "69": 8817,
      "raÄŁÄ±": 8818,
      "ĠÚ©": 8819,
      "ÅŁar": 8820,
      "Ġgalat": 8821,
      "Ġsiv": 8822,
      "ĠnÃ¢k": 8823,
      "revÃ¢": 8824,
      "atlÄ±": 8825,
      "ĠTel": 8826,
      "ĠriyÃ¢z": 8827,
      "ĠÅŀaf": 8828,
      "Ġolmam": 8829,
      "liÄŁ": 8830,
      "Ã¢viyesi": 8831,
      "ukarÄ±": 8832,
      "ĠLutf": 8833,
      "lemÃ»n": 8834,
      "ÙıÙĳ": 8835,
      "Ø§Ø¨": 8836,
      "ĠmÃ¼teh": 8837,
      "ĠsiyÃ¢sÃ®": 8838,
      "ĠÃ¢ÅŁÃ¼fte": 8839,
      "ĠerbaÊ»": 8840,
      "Ġtezkire": 8841,
      "kirmÃ¢n": 8842,
      "ĠtÃ¢rih": 8843,
      "ĠistiklÃ¢l": 8844,
      "uÅŁÅŁÃ¢ka": 8845,
      "ĠmÃ¼himmÃ¢t": 8846,
      "tekaddem": 8847,
      "Ġeyitdim": 8848,
      "ĠGedÃ¢yÃ®": 8849,
      "ĠErtesi": 8850,
      "kim": 8851,
      "yid": 8852,
      "Ġsed": 8853,
      "ĠBan": 8854,
      "ĠBÃ¢r": 8855,
      "ĠHadÃ¢": 8856,
      "Ã¢bdan": 8857,
      "ĠTem": 8858,
      "ĠÅŀak": 8859,
      "ĠvardÄ±": 8860,
      "Ġderesi": 8861,
      "ĠcÃ¢nlar": 8862,
      "Ã¢ÅŁe": 8863,
      "Ġvermek": 8864,
      "Ġverdiler": 8865,
      "ĠyokuÅŁ": 8866,
      "ĠgÃ¶zÃ¼": 8867,
      "ĠAbdÃ¼r": 8868,
      "ĠDersa": 8869,
      "ĠDerhÃ¢l": 8870,
      "Ġbelin": 8871,
      "Ġmenh": 8872,
      "ĠsÃ¼rer": 8873,
      "Ġdefa": 8874,
      "ĠmutÃ®": 8875,
      "ĠifÃ¢": 8876,
      "nÃ¼mÃ»n": 8877,
      "ĠdekÃ¢kÃ®n": 8878,
      "eylesÃ¼n": 8879,
      "ĠayaÄŁÄ±na": 8880,
      "ĠmÃ¼jgÃ¢n": 8881,
      "ĠhuddÃ¢mlarÄ±": 8882,
      "ĠDaÄŁÄ±stÃ¢n": 8883,
      "bar": 8884,
      "cik": 8885,
      "hisÃ¢r": 8886,
      "mah": 8887,
      "ven": 8888,
      "Ä±dÄ±": 8889,
      "Ġsaz": 8890,
      "ĠMuz": 8891,
      "ĠHÃ¢c": 8892,
      "atlarÄ±": 8893,
      "Ġkalyon": 8894,
      "yede": 8895,
      "ĠmahdÃ»m": 8896,
      "Ä±yan": 8897,
      "Ġberr": 8898,
      "Ġkabza": 8899,
      "Ġedenler": 8900,
      "Ġehline": 8901,
      "ĠÃ¢ÅŁikÃ¢r": 8902,
      "Ġkefen": 8903,
      "ĠtecdÃ®d": 8904,
      "ĠÄ°kinci": 8905,
      "Ġ(âĨĴ)": 8906,
      "ĠsabÃ¢ha": 8907,
      "Ġmukayyed": 8908,
      "74": 8909,
      "gen": 8910,
      "gur": 8911,
      "nÃ¼nÃ¼": 8912,
      "Ġtuy": 8913,
      "allÄ±": 8914,
      "melÃ®": 8915,
      "ahÃ¢ne": 8916,
      "ĠHayr": 8917,
      "azz": 8918,
      "ĠSÃ¢kiyÃ¢": 8919,
      "Ġanlardan": 8920,
      "ĠeyledÃ¼n": 8921,
      "Ùİ)": 8922,
      "Ġederse": 8923,
      "Ġrek": 8924,
      "ĠiÅŁtir": 8925,
      "ĠkerÃ®me": 8926,
      "ĠbelÃ¢gat": 8927,
      "Ġhast": 8928,
      "ĠsahrÃ¢sÄ±": 8929,
      "ĠmansÄ±b": 8930,
      "Ġ1330": 8931,
      "Ä±ldÄ±ÄŁÄ±": 8932,
      "Ġegri": 8933,
      "ĠYeniÃ§eri": 8934,
      "Ġvelvele": 8935,
      "51": 8936,
      "53": 8937,
      "79": 8938,
      "Ġbeli": 8939,
      "lel": 8940,
      "Ġvoyv": 8941,
      "ĠhÃ¼z": 8942,
      "Ġves": 8943,
      "Ġvey": 8944,
      "ali": 8945,
      "ilÃ¢l": 8946,
      "ĠBoÅŁ": 8947,
      "ĠHep": 8948,
      "ayet": 8949,
      "asa": 8950,
      "amÄ±": 8951,
      "Ġpr": 8952,
      "ĠÅŀun": 8953,
      "efrÃ¢z": 8954,
      "ĠRaba": 8955,
      "ĠFah": 8956,
      "oktor": 8957,
      "Ä±mda": 8958,
      "á¹ĩ": 8959,
      "ĠayÃ¢n": 8960,
      "berÃ¢": 8961,
      "Ã®katÃ¼": 8962,
      "ĠmakbÃ»l": 8963,
      "Ã¢liÄŁ": 8964,
      "Ġbulunuyor": 8965,
      "ĠMÃ¼dÃ¼r": 8966,
      "ĠlebÃ¼Ã±": 8967,
      "ĠÅŁehirden": 8968,
      "ĠbÃ¢zÃ»": 8969,
      "ĠHalvet": 8970,
      "ĠkireÃ§": 8971,
      "ĠhattÃ¢": 8972,
      "ĠakÃ§edir": 8973,
      "ĠkÃ¶yÃ¼dÃ¼r": 8974,
      "ĠHabÃ®b": 8975,
      "Ġfels": 8976,
      "ĠtathÃ®r": 8977,
      "ĠeksÃ¼k": 8978,
      "ĠgenÃ§": 8979,
      "ĠhÃ¼mÃ¢": 8980,
      "Ġlahza": 8981,
      "ĠÅŁÃ¼fÃ®": 8982,
      "84": 8983,
      "aleb": 8984,
      "gÃ¼": 8985,
      "kÃ¢h": 8986,
      "lur": 8987,
      "tez": 8988,
      "ĠvÃ®rÃ¢n": 8989,
      "ĠÃ§en": 8990,
      "ĠVÃ¼c": 8991,
      "ebbek": 8992,
      "ĠYohsa": 8993,
      "ĠankÃ¢": 8994,
      "ĠÃ¶ÄŁr": 8995,
      "ĠenderÃ»n": 8996,
      "ĠÃ¶nce": 8997,
      "Ġevvelki": 8998,
      "ĠdÃ®vÃ¢rlarÄ±": 8999,
      "Ã¼vvÃ¢r": 9000,
      "Ġvasl": 9001,
      "ĠÅŁecer": 9002,
      "ĠuÃ§ur": 9003,
      "ĠkÃ¢sÄ±r": 9004,
      "ĠTÃ¼rki": 9005,
      "ĠdervÃ®ÅŁÃ¢n": 9006,
      "ĠintihÃ¢b": 9007,
      "ĠzÄ±rh": 9008,
      "+--/": 9009,
      "76": 9010,
      "AZ": 9011,
      "xt": 9012,
      "zÃ¼m": 9013,
      "zesi": 9014,
      "melik": 9015,
      "Ġnus": 9016,
      "ĠnidÃ¢": 9017,
      "dad": 9018,
      "Ġdediklerinde": 9019,
      "Ã¼zer": 9020,
      "Ã¢sÃ®n": 9021,
      "eÅŁrÃ¢f": 9022,
      "Äģya": 9023,
      "ĠrÃ¼s": 9024,
      "ĠDon": 9025,
      "ĠDiv": 9026,
      "ider": 9027,
      "eze": 9028,
      "ĠÃĩal": 9029,
      "mÃ¢nÃ®": 9030,
      "Ã®fesi": 9031,
      "Ġayda": 9032,
      "ĠdevÃ¢m": 9033,
      "Ġmuhakkak": 9034,
      "ĠhalÃ®c": 9035,
      "ĠØ®": 9036,
      "ĠgÃ¶zden": 9037,
      "ĠDerv": 9038,
      "Ġmevki": 9039,
      "ĠÃ¢sÃ®": 9040,
      "Ġyolunda": 9041,
      "ĠmekÅŁÃ»f": 9042,
      "Ä±mÄ±zÄ±n": 9043,
      "ĠkendÃ¼leri": 9044,
      "ĠsÃ¶ylen": 9045,
      "Ġgelirken": 9046,
      "ĠFireng": 9047,
      "ĠÅŀanma": 9048,
      "ĠmecmÃ»a": 9049,
      "Ġkelb": 9050,
      "Ġcesed": 9051,
      "Ġkeferesi": 9052,
      "ĠgÃ¶rmedim": 9053,
      "fÃ¢r": 9054,
      "gÃ¢ye": 9055,
      "kÃ¶y": 9056,
      "nden": 9057,
      "Ġhod": 9058,
      "ĠsÃ¶n": 9059,
      "ĠsÄ±fat": 9060,
      "Ġolsam": 9061,
      "Ã¢lÃ¢t": 9062,
      "ĠGeh": 9063,
      "ĠitmesÃ¼n": 9064,
      "ĠZÃ®": 9065,
      "Ġatar": 9066,
      "ĠakÄ±l": 9067,
      "araÅ¾": 9068,
      "ĠmeydÃ¢nÄ±": 9069,
      "ĠhÃ¢nÄ±n": 9070,
      "manÄ±n": 9071,
      "Ġyollar": 9072,
      "ĠmÄ±dÄ±r": 9073,
      "ĠMekteb": 9074,
      "ĠtÃ¼rbe": 9075,
      "ucu": 9076,
      "ĠtÃ¢bÃ¢n": 9077,
      "Ġtedkik": 9078,
      "Ġtezkir": 9079,
      "ĠPertev": 9080,
      "ĠtecellÃ®": 9081,
      "ĠbilÃ¼rsin": 9082,
      "ĠCelÃ¢lÃ®": 9083,
      "Ġá¹¬": 9084,
      "ĠhukemÃ¢": 9085,
      "ĠmÃ¼ntehÃ¢": 9086,
      "ĠkÃ¶ÅŁesinde": 9087,
      "ĠmÃ¼lÃ¢zemet": 9088,
      "ĠcÃ¼lÃ»s": 9089,
      "Ġehemmiyet": 9090,
      "Ġdraht": 9091,
      "kÃ¢rÃ®": 9092,
      "nebÃ®": 9093,
      "pes": 9094,
      "pÃ¢k": 9095,
      "salar": 9096,
      "á½": 9097,
      "Ġmeg": 9098,
      "ĠgÅį": 9099,
      "ĠfÃ¢zÄ±l": 9100,
      "ĠÄ°sl": 9101,
      "ĠÄ°rÃ¢n": 9102,
      "ebÃ¢": 9103,
      "ĠNi": 9104,
      "ĠTes": 9105,
      "ĠmÃ¼ess": 9106,
      "Ġrif": 9107,
      "ĠYez": 9108,
      "ĠPÃ¢k": 9109,
      "eled": 9110,
      "text": 9111,
      "Ġesir": 9112,
      "ĠashÃ¢b": 9113,
      "ĠtahammÃ¼l": 9114,
      "mazdÄ±": 9115,
      "Ġisem": 9116,
      "ĠhÃ¢nesi": 9117,
      "Ġmevs": 9118,
      "Ġyani": 9119,
      "Ġedece": 9120,
      "ĠpertÃ¢b": 9121,
      "ĠpÃ¢diÅŁÃ¢hÄ±": 9122,
      "ĠkÄ±rkar": 9123,
      "ĠyaÅŁdan": 9124,
      "ĠsultÃ¢ndÄ±r": 9125,
      "Ġfenn": 9126,
      "ĠAshÃ¢b": 9127,
      "Ġvechile": 9128,
      "ĠgÃ¶renler": 9129,
      "buki": 9130,
      "ĠÃ§erÃ¢ÄŁÃ¢n": 9131,
      "ĠKÄ±brÄ±s": 9132,
      "ĠÅŁimÃ¢linde": 9133,
      "Ġboru": 9134,
      "ĠtercÃ¼me": 9135,
      "BaÄŁdÃ¢d": 9136,
      "ĠmanÅŁÄ±b": 9137,
      "hÃ¢h": 9138,
      "tÃ¢k": 9139,
      "ĠmÄģh": 9140,
      "ĠÅŁin": 9141,
      "emri": 9142,
      "imden": 9143,
      "unus": 9144,
      "ĠKÄ±y": 9145,
      "ĠKÃ¶r": 9146,
      "ĠzÃ¼vvÃ¢r": 9147,
      "Ġfasl": 9148,
      "ĠmÃ¼mes": 9149,
      "ĠPap": 9150,
      "ĠÅŁehbÃ¢z": 9151,
      "Ã¢ÄŁÄ±": 9152,
      "Ġrez": 9153,
      "Ġevli": 9154,
      "Å«á¸¥": 9155,
      "Ġveren": 9156,
      "ĠgerdÃ¼n": 9157,
      "oyun": 9158,
      "ĠkanÃ¢": 9159,
      "ĠmÃ¼ÅŁter": 9160,
      "ĠolmÄ±ÅŁlar": 9161,
      "ĠhandÃ¢n": 9162,
      "Ġhazretlerine": 9163,
      "ĠdevletlÃ¼": 9164,
      "ĠdÃ¶nÃ¼p": 9165,
      "ĠEkrem": 9166,
      "ĠÅŁarkÃ®sinde": 9167,
      "ruhu": 9168,
      "Ġtatb": 9169,
      "Ġkopar": 9170,
      "ĠmuhÃ¢lif": 9171,
      "ĠNeferÃ¢t": 9172,
      "car": 9173,
      "hakk": 9174,
      "tiÅŁ": 9175,
      "vÃ®l": 9176,
      "ĠtÃ¢v": 9177,
      "ĠÅŁÃ¢fÃ®": 9178,
      "iyey": 9179,
      "Ã¢lÃ®m": 9180,
      "ĠNÃ¢m": 9181,
      "ĠmÃ¼fer": 9182,
      "ĠDel": 9183,
      "ummÃ¢n": 9184,
      "aÄŁan": 9185,
      "á¸į": 9186,
      "ĠÅŀÃ¼k": 9187,
      "Ġolmadan": 9188,
      "lÄ±ca": 9189,
      "Ġins": 9190,
      "akkÃ¢s": 9191,
      "ĠihyÃ¢": 9192,
      "ĠgirÃ®b": 9193,
      "Ġetmeden": 9194,
      "ĠefÄŁ": 9195,
      "ĠyakdÄ±": 9196,
      "Ġadd": 9197,
      "ĠadlÄ±": 9198,
      "ĠkaÃ§ar": 9199,
      "ĠHadis": 9200,
      "ĠÃ¢id": 9201,
      "ĠmÃ¼sellah": 9202,
      "ĠEyledi": 9203,
      "ĠKÄ±ble": 9204,
      "ĠhÃ¼kmÃ¼ndedir": 9205,
      "ĠNaim": 9206,
      "ĠFÃ¢risÃ®": 9207,
      "ĠNizÃ¢mÃ®": 9208,
      "ĠvasatÄ±nda": 9209,
      "54": 9210,
      "Sit": 9211,
      "hoÅŁ": 9212,
      "kÄ±n": 9213,
      "lÄ±ÅŁ": 9214,
      "ÅŁin": 9215,
      "Ġbis": 9216,
      "ĠmÄ±z": 9217,
      "ĠhÃ¼": 9218,
      "ĠsÃ¢lik": 9219,
      "Ġsep": 9220,
      "Ã¢reti": 9221,
      "mest": 9222,
      "iyesinde": 9223,
      "ĠpÃ®re": 9224,
      "seÄŁ": 9225,
      "ĠOla": 9226,
      "mÄ±ÅŁdÄ±r": 9227,
      "ĠÃ¢demlerdir": 9228,
      "Ġiderek": 9229,
      "ĠikÃ¢met": 9230,
      "meydÃ¢nÄ±": 9231,
      "Ġkayn": 9232,
      "Ġhasen": 9233,
      "ĠruhuÃ±": 9234,
      "Ġgelene": 9235,
      "Â¹âģ°": 9236,
      "ĠÄ±slÃ¢h": 9237,
      "Ġmerkad": 9238,
      "ĠEmriyÃ¢": 9239,
      "Ġismine": 9240,
      "ĠgÃ¶rÃ¼nce": 9241,
      "ĠÃ§evgÃ¢n": 9242,
      "ĠkÃ¢tibi": 9243,
      "ĠDegÃ¼l": 9244,
      "59": 9245,
      "62": 9246,
      "73": 9247,
      "78": 9248,
      "dÃ®k": 9249,
      "hi": 9250,
      "hiÅŁ": 9251,
      "hor": 9252,
      "kÃ¢d": 9253,
      "mÃ®n": 9254,
      "ĠmelÃ¢met": 9255,
      "Ġodur": 9256,
      "Ġgi": 9257,
      "ĠgÃ¼fte": 9258,
      "ĠtÄ±ÄŁ": 9259,
      "ĠBÃ¢g": 9260,
      "Ã¢lin": 9261,
      "ĠAá¸¥": 9262,
      "ĠNey": 9263,
      "Åŀa": 9264,
      "aÄŁÄ±m": 9265,
      "efendi": 9266,
      "ĠYayÄ±n": 9267,
      "ĠlÃ¼": 9268,
      "ĠrehÃ¢": 9269,
      "Ġkapunun": 9270,
      "bere": 9271,
      "ĠaklÄ±": 9272,
      "ĠÅŁÃ¢hum": 9273,
      "Ġzerr": 9274,
      "ĠhalkÄ±nÄ±n": 9275,
      "Ġhaberi": 9276,
      "Ġkirp": 9277,
      "ĠMevlevÃ®": 9278,
      "ĠhurÅŁid": 9279,
      "pervÃ¢": 9280,
      "Ġuyan": 9281,
      "ĠmÃ¼mkin": 9282,
      "Ġgeyerler": 9283,
      "Ġmenzilde": 9284,
      "ĠtecÃ¢vÃ¼z": 9285,
      "ĠhÃ¢iz": 9286,
      "ĠhidÃ¢yet": 9287,
      "ĠBuhÃ¢rÃ®": 9288,
      "ĠbabasÄ±": 9289,
      "ĠsÃ¢zende": 9290,
      "Ġmaraz": 9291,
      "ĠEÄŁre": 9292,
      "ĠkesÃ®reye": 9293,
      "ĠiÅŁtig": 9294,
      ".}": 9295,
      "63": 9296,
      "AT": 9297,
      "neti": 9298,
      "oÃ§": 9299,
      "ÅŁev": 9300,
      "ĠsÃ¢m": 9301,
      "uru": 9302,
      "aklarÄ±": 9303,
      "Ġbirle": 9304,
      "ĠKarak": 9305,
      "ĠSÃ¼z": 9306,
      "ĠSÄ±f": 9307,
      "ehre": 9308,
[...]
